{
  "version": "1.0",
  "truncation": null,
  "padding": null,
  "added_tokens": [
    {
      "id": 0,
      "content": "[UNK]",
      "single_word": false,
      "lstrip": false,
      "rstrip": false,
      "normalized": false,
      "special": true
    },
    {
      "id": 1,
      "content": "[CLS]",
      "single_word": false,
      "lstrip": false,
      "rstrip": false,
      "normalized": false,
      "special": true
    },
    {
      "id": 2,
      "content": "[SEP]",
      "single_word": false,
      "lstrip": false,
      "rstrip": false,
      "normalized": false,
      "special": true
    },
    {
      "id": 3,
      "content": "[PAD]",
      "single_word": false,
      "lstrip": false,
      "rstrip": false,
      "normalized": false,
      "special": true
    },
    {
      "id": 4,
      "content": "[MASK]",
      "single_word": false,
      "lstrip": false,
      "rstrip": false,
      "normalized": false,
      "special": true
    }
  ],
  "normalizer": {
    "type": "BertNormalizer",
    "clean_text": true,
    "handle_chinese_chars": true,
    "strip_accents": null,
    "lowercase": false
  },
  "pre_tokenizer": {
    "type": "BertPreTokenizer"
  },
  "post_processor": {
    "type": "TemplateProcessing",
    "single": [
      {
        "SpecialToken": {
          "id": "[CLS]",
          "type_id": 0
        }
      },
      {
        "Sequence": {
          "id": "A",
          "type_id": 0
        }
      },
      {
        "SpecialToken": {
          "id": "[SEP]",
          "type_id": 0
        }
      }
    ],
    "pair": [
      {
        "SpecialToken": {
          "id": "[CLS]",
          "type_id": 0
        }
      },
      {
        "Sequence": {
          "id": "A",
          "type_id": 0
        }
      },
      {
        "SpecialToken": {
          "id": "[SEP]",
          "type_id": 0
        }
      },
      {
        "Sequence": {
          "id": "B",
          "type_id": 1
        }
      },
      {
        "SpecialToken": {
          "id": "[SEP]",
          "type_id": 1
        }
      }
    ],
    "special_tokens": {
      "[CLS]": {
        "id": "[CLS]",
        "ids": [
          1
        ],
        "tokens": [
          "[CLS]"
        ]
      },
      "[SEP]": {
        "id": "[SEP]",
        "ids": [
          2
        ],
        "tokens": [
          "[SEP]"
        ]
      }
    }
  },
  "decoder": {
    "type": "WordPiece",
    "prefix": "##",
    "cleanup": true
  },
  "model": {
    "type": "WordPiece",
    "unk_token": "[UNK]",
    "continuing_subword_prefix": "##",
    "max_input_chars_per_word": 100,
    "vocab": {
      "[UNK]": 0,
      "[CLS]": 1,
      "[SEP]": 2,
      "[PAD]": 3,
      "[MASK]": 4,
      "\u0000": 5,
      "\u0001": 6,
      "\u0002": 7,
      "\u0003": 8,
      "\u0004": 9,
      "\u0005": 10,
      "\b": 11,
      "\u000e": 12,
      "\u0013": 13,
      "\u0014": 14,
      "\u0017": 15,
      "\u001f": 16,
      "!": 17,
      "\"": 18,
      "#": 19,
      "$": 20,
      "%": 21,
      "&": 22,
      "'": 23,
      "(": 24,
      ")": 25,
      "*": 26,
      "+": 27,
      ",": 28,
      "-": 29,
      ".": 30,
      "/": 31,
      "0": 32,
      "1": 33,
      "2": 34,
      "3": 35,
      "4": 36,
      "5": 37,
      "6": 38,
      "7": 39,
      "8": 40,
      "9": 41,
      ":": 42,
      ";": 43,
      "<": 44,
      "=": 45,
      ">": 46,
      "?": 47,
      "@": 48,
      "A": 49,
      "B": 50,
      "C": 51,
      "D": 52,
      "E": 53,
      "F": 54,
      "G": 55,
      "H": 56,
      "I": 57,
      "J": 58,
      "K": 59,
      "L": 60,
      "M": 61,
      "N": 62,
      "O": 63,
      "P": 64,
      "Q": 65,
      "R": 66,
      "S": 67,
      "T": 68,
      "U": 69,
      "V": 70,
      "W": 71,
      "X": 72,
      "Y": 73,
      "Z": 74,
      "[": 75,
      "\\": 76,
      "]": 77,
      "^": 78,
      "_": 79,
      "`": 80,
      "a": 81,
      "b": 82,
      "c": 83,
      "d": 84,
      "e": 85,
      "f": 86,
      "g": 87,
      "h": 88,
      "i": 89,
      "j": 90,
      "k": 91,
      "l": 92,
      "m": 93,
      "n": 94,
      "o": 95,
      "p": 96,
      "q": 97,
      "r": 98,
      "s": 99,
      "t": 100,
      "u": 101,
      "v": 102,
      "w": 103,
      "x": 104,
      "y": 105,
      "z": 106,
      "{": 107,
      "|": 108,
      "}": 109,
      "~": 110,
      "": 111,
      "": 112,
      "": 113,
      "": 114,
      "": 115,
      "": 116,
      "": 117,
      "": 118,
      "": 119,
      "": 120,
      "": 121,
      "": 122,
      "": 123,
      "": 124,
      "": 125,
      "": 126,
      "": 127,
      "": 128,
      "": 129,
      "": 130,
      "": 131,
      "": 132,
      "": 133,
      "": 134,
      "": 135,
      "": 136,
      "": 137,
      "": 138,
      "¡": 139,
      "¢": 140,
      "£": 141,
      "¤": 142,
      "¥": 143,
      "¦": 144,
      "§": 145,
      "¨": 146,
      "©": 147,
      "ª": 148,
      "«": 149,
      "¬": 150,
      "­": 151,
      "®": 152,
      "¯": 153,
      "°": 154,
      "±": 155,
      "²": 156,
      "³": 157,
      "´": 158,
      "µ": 159,
      "¶": 160,
      "·": 161,
      "¸": 162,
      "¹": 163,
      "º": 164,
      "»": 165,
      "¼": 166,
      "½": 167,
      "¾": 168,
      "¿": 169,
      "Æ": 170,
      "Ð": 171,
      "×": 172,
      "Ø": 173,
      "Þ": 174,
      "ß": 175,
      "æ": 176,
      "ð": 177,
      "÷": 178,
      "ø": 179,
      "þ": 180,
      "Đ": 181,
      "đ": 182,
      "Ħ": 183,
      "ħ": 184,
      "ı": 185,
      "Ł": 186,
      "ł": 187,
      "Œ": 188,
      "œ": 189,
      "Ŧ": 190,
      "ſ": 191,
      "Ɔ": 192,
      "Ƌ": 193,
      "Ǝ": 194,
      "Ə": 195,
      "ƒ": 196,
      "ƣ": 197,
      "ƿ": 198,
      "ǃ": 199,
      "ǝ": 200,
      "ȝ": 201,
      "ɑ": 202,
      "ɒ": 203,
      "ɔ": 204,
      "ə": 205,
      "ɛ": 206,
      "ɢ": 207,
      "ɣ": 208,
      "ɨ": 209,
      "ɪ": 210,
      "ɲ": 211,
      "ɴ": 212,
      "ɹ": 213,
      "ɻ": 214,
      "ɽ": 215,
      "ɾ": 216,
      "ʀ": 217,
      "ʁ": 218,
      "ʃ": 219,
      "ʏ": 220,
      "ʟ": 221,
      "ʷ": 222,
      "ʹ": 223,
      "ʺ": 224,
      "ʻ": 225,
      "ʼ": 226,
      "ʽ": 227,
      "ʾ": 228,
      "ʿ": 229,
      "ˆ": 230,
      "ˈ": 231,
      "ˋ": 232,
      "ː": 233,
      "˚": 234,
      "˜": 235,
      "˝": 236,
      "ˮ": 237,
      "̀": 238,
      "́": 239,
      "̂": 240,
      "̃": 241,
      "̄": 242,
      "̅": 243,
      "̆": 244,
      "̇": 245,
      "̈": 246,
      "̉": 247,
      "̊": 248,
      "̋": 249,
      "̌": 250,
      "̎": 251,
      "̏": 252,
      "̓": 253,
      "̔": 254,
      "̕": 255,
      "̛": 256,
      "̣": 257,
      "̦": 258,
      "̧": 259,
      "̨": 260,
      "̮": 261,
      "̱": 262,
      "̲": 263,
      "̵": 264,
      "̸": 265,
      "͂": 266,
      "ͅ": 267,
      "Α": 268,
      "Β": 269,
      "Γ": 270,
      "Δ": 271,
      "Ε": 272,
      "Ζ": 273,
      "Η": 274,
      "Θ": 275,
      "Ι": 276,
      "Κ": 277,
      "Λ": 278,
      "Μ": 279,
      "Ν": 280,
      "Ξ": 281,
      "Ο": 282,
      "Π": 283,
      "Ρ": 284,
      "Σ": 285,
      "Τ": 286,
      "Υ": 287,
      "Φ": 288,
      "Χ": 289,
      "Ω": 290,
      "α": 291,
      "β": 292,
      "γ": 293,
      "δ": 294,
      "ε": 295,
      "ζ": 296,
      "η": 297,
      "θ": 298,
      "ι": 299,
      "κ": 300,
      "λ": 301,
      "μ": 302,
      "ν": 303,
      "ξ": 304,
      "ο": 305,
      "π": 306,
      "ρ": 307,
      "ς": 308,
      "σ": 309,
      "τ": 310,
      "υ": 311,
      "φ": 312,
      "χ": 313,
      "ψ": 314,
      "ω": 315,
      "Ϙ": 316,
      "ϙ": 317,
      "ϛ": 318,
      "Ϝ": 319,
      "ϝ": 320,
      "Ϟ": 321,
      "ϟ": 322,
      "ϩ": 323,
      "Ђ": 324,
      "І": 325,
      "Ј": 326,
      "А": 327,
      "Б": 328,
      "В": 329,
      "Г": 330,
      "Д": 331,
      "Е": 332,
      "Ж": 333,
      "З": 334,
      "И": 335,
      "К": 336,
      "Л": 337,
      "М": 338,
      "Н": 339,
      "О": 340,
      "П": 341,
      "Р": 342,
      "С": 343,
      "Т": 344,
      "У": 345,
      "Ф": 346,
      "Х": 347,
      "Ц": 348,
      "Ч": 349,
      "Ш": 350,
      "Ь": 351,
      "Ю": 352,
      "Я": 353,
      "а": 354,
      "б": 355,
      "в": 356,
      "г": 357,
      "д": 358,
      "е": 359,
      "ж": 360,
      "з": 361,
      "и": 362,
      "к": 363,
      "л": 364,
      "м": 365,
      "н": 366,
      "о": 367,
      "п": 368,
      "р": 369,
      "с": 370,
      "т": 371,
      "у": 372,
      "ф": 373,
      "х": 374,
      "ц": 375,
      "ч": 376,
      "ш": 377,
      "щ": 378,
      "ъ": 379,
      "ы": 380,
      "ь": 381,
      "э": 382,
      "ю": 383,
      "я": 384,
      "є": 385,
      "ѕ": 386,
      "і": 387,
      "ј": 388,
      "љ": 389,
      "њ": 390,
      "ћ": 391,
      "џ": 392,
      "ѥ": 393,
      "ѩ": 394,
      "҆": 395,
      "Ґ": 396,
      "Ғ": 397,
      "ғ": 398,
      "қ": 399,
      "ң": 400,
      "ұ": 401,
      "ҳ": 402,
      "ҷ": 403,
      "һ": 404,
      "ә": 405,
      "ө": 406,
      "Ա": 407,
      "Զ": 408,
      "Հ": 409,
      "Ո": 410,
      "՞": 411,
      "ա": 412,
      "բ": 413,
      "գ": 414,
      "դ": 415,
      "ե": 416,
      "է": 417,
      "ը": 418,
      "ժ": 419,
      "ի": 420,
      "լ": 421,
      "կ": 422,
      "հ": 423,
      "ղ": 424,
      "մ": 425,
      "յ": 426,
      "ն": 427,
      "ո": 428,
      "պ": 429,
      "ս": 430,
      "վ": 431,
      "տ": 432,
      "ր": 433,
      "ւ": 434,
      "փ": 435,
      "օ": 436,
      "֑": 437,
      "֔": 438,
      "֣": 439,
      "ְ": 440,
      "ֱ": 441,
      "ֲ": 442,
      "ֳ": 443,
      "ִ": 444,
      "ֵ": 445,
      "ֶ": 446,
      "ַ": 447,
      "ָ": 448,
      "ֹ": 449,
      "ֻ": 450,
      "ּ": 451,
      "ׁ": 452,
      "ׂ": 453,
      "א": 454,
      "ב": 455,
      "ג": 456,
      "ד": 457,
      "ה": 458,
      "ו": 459,
      "ז": 460,
      "ח": 461,
      "ט": 462,
      "י": 463,
      "ך": 464,
      "כ": 465,
      "ל": 466,
      "ם": 467,
      "מ": 468,
      "ן": 469,
      "נ": 470,
      "ס": 471,
      "ע": 472,
      "ף": 473,
      "פ": 474,
      "ץ": 475,
      "צ": 476,
      "ק": 477,
      "ר": 478,
      "ש": 479,
      "ת": 480,
      "،": 481,
      "؟": 482,
      "ء": 483,
      "ا": 484,
      "ب": 485,
      "ة": 486,
      "ت": 487,
      "ث": 488,
      "ج": 489,
      "ح": 490,
      "خ": 491,
      "د": 492,
      "ذ": 493,
      "ر": 494,
      "ز": 495,
      "س": 496,
      "ش": 497,
      "ص": 498,
      "ض": 499,
      "ط": 500,
      "ظ": 501,
      "ع": 502,
      "غ": 503,
      "ـ": 504,
      "ف": 505,
      "ق": 506,
      "ك": 507,
      "ل": 508,
      "م": 509,
      "ن": 510,
      "ه": 511,
      "و": 512,
      "ى": 513,
      "ي": 514,
      "ً": 515,
      "ٌ": 516,
      "ٍ": 517,
      "َ": 518,
      "ُ": 519,
      "ِ": 520,
      "ّ": 521,
      "ْ": 522,
      "ٓ": 523,
      "ٔ": 524,
      "ٕ": 525,
      "١": 526,
      "٢": 527,
      "٣": 528,
      "٤": 529,
      "ٰ": 530,
      "ٱ": 531,
      "پ": 532,
      "چ": 533,
      "ڈ": 534,
      "ڌ": 535,
      "ک": 536,
      "ڬ": 537,
      "ھ": 538,
      "ہ": 539,
      "ۇ": 540,
      "ی": 541,
      "ے": 542,
      "ە": 543,
      "ۖ": 544,
      "ۗ": 545,
      "ۚ": 546,
      "۝": 547,
      "۞": 548,
      "۟": 549,
      "۠": 550,
      "ۡ": 551,
      "ۢ": 552,
      "ۥ": 553,
      "ۦ": 554,
      "ۭ": 555,
      "ܐ": 556,
      "ܓ": 557,
      "ܗ": 558,
      "ܘ": 559,
      "ܝ": 560,
      "ܠ": 561,
      "ܡ": 562,
      "ܢ": 563,
      "ܥ": 564,
      "ܪ": 565,
      "ܫ": 566,
      "ܲ": 567,
      "ܵ": 568,
      "ހ": 569,
      "ވ": 570,
      "މ": 571,
      "ދ": 572,
      "ލ": 573,
      "ޠ": 574,
      "ޡ": 575,
      "ާ": 576,
      "ި": 577,
      "ެ": 578,
      "ߋ": 579,
      "ߴ": 580,
      "ߵ": 581,
      "߹": 582,
      "ं": 583,
      "ः": 584,
      "अ": 585,
      "ई": 586,
      "उ": 587,
      "औ": 588,
      "क": 589,
      "ख": 590,
      "ग": 591,
      "च": 592,
      "छ": 593,
      "ज": 594,
      "ट": 595,
      "ड": 596,
      "ण": 597,
      "त": 598,
      "द": 599,
      "न": 600,
      "प": 601,
      "फ": 602,
      "ब": 603,
      "भ": 604,
      "म": 605,
      "य": 606,
      "र": 607,
      "ल": 608,
      "व": 609,
      "श": 610,
      "ष": 611,
      "स": 612,
      "ह": 613,
      "़": 614,
      "ा": 615,
      "ि": 616,
      "ी": 617,
      "ु": 618,
      "ू": 619,
      "े": 620,
      "ै": 621,
      "ॉ": 622,
      "ो": 623,
      "्": 624,
      "।": 625,
      "ং": 626,
      "ক": 627,
      "গ": 628,
      "ঙ": 629,
      "চ": 630,
      "ট": 631,
      "দ": 632,
      "ব": 633,
      "ম": 634,
      "র": 635,
      "ল": 636,
      "শ": 637,
      "া": 638,
      "ী": 639,
      "ে": 640,
      "্": 641,
      "৳": 642,
      "ਈ": 643,
      "ਉ": 644,
      "ਚ": 645,
      "ਨ": 646,
      "ਭ": 647,
      "ਰ": 648,
      "ਲ": 649,
      "ਾ": 650,
      "ੋ": 651,
      "ખ": 652,
      "ગ": 653,
      "છ": 654,
      "જ": 655,
      "ડ": 656,
      "ત": 657,
      "પ": 658,
      "બ": 659,
      "ભ": 660,
      "ય": 661,
      "ર": 662,
      "સ": 663,
      "ા": 664,
      "ી": 665,
      "ુ": 666,
      "ૂ": 667,
      "ે": 668,
      "્": 669,
      "த": 670,
      "ம": 671,
      "ழ": 672,
      "ி": 673,
      "்": 674,
      "ం": 675,
      "ఇ": 676,
      "ఈ": 677,
      "ఎ": 678,
      "క": 679,
      "గ": 680,
      "ఘ": 681,
      "డ": 682,
      "త": 683,
      "థ": 684,
      "ద": 685,
      "ధ": 686,
      "న": 687,
      "ప": 688,
      "బ": 689,
      "భ": 690,
      "య": 691,
      "ర": 692,
      "ల": 693,
      "శ": 694,
      "స": 695,
      "హ": 696,
      "ా": 697,
      "ు": 698,
      "ె": 699,
      "ో": 700,
      "్": 701,
      "ದ": 702,
      "ಭ": 703,
      "ಯ": 704,
      "ಶ": 705,
      "ು": 706,
      "ೂ": 707,
      "ೆ": 708,
      "ೕ": 709,
      "ം": 710,
      "മ": 711,
      "യ": 712,
      "ല": 713,
      "ള": 714,
      "ാ": 715,
      "ං": 716,
      "උ": 717,
      "ඒ": 718,
      "ක": 719,
      "ත": 720,
      "ද": 721,
      "න": 722,
      "භ": 723,
      "ම": 724,
      "ර": 725,
      "ල": 726,
      "ව": 727,
      "ශ": 728,
      "ස": 729,
      "හ": 730,
      "්": 731,
      "ා": 732,
      "ැ": 733,
      "ෑ": 734,
      "ි": 735,
      "ී": 736,
      "ු": 737,
      "ก": 738,
      "ข": 739,
      "ค": 740,
      "ง": 741,
      "จ": 742,
      "ฉ": 743,
      "ช": 744,
      "ญ": 745,
      "ฎ": 746,
      "ฐ": 747,
      "ณ": 748,
      "ด": 749,
      "ต": 750,
      "ถ": 751,
      "ท": 752,
      "ธ": 753,
      "น": 754,
      "บ": 755,
      "ป": 756,
      "ผ": 757,
      "ฝ": 758,
      "พ": 759,
      "ภ": 760,
      "ม": 761,
      "ย": 762,
      "ร": 763,
      "ฤ": 764,
      "ล": 765,
      "ว": 766,
      "ศ": 767,
      "ษ": 768,
      "ส": 769,
      "ห": 770,
      "อ": 771,
      "ฯ": 772,
      "ะ": 773,
      "ั": 774,
      "า": 775,
      "ำ": 776,
      "ิ": 777,
      "ี": 778,
      "ึ": 779,
      "ื": 780,
      "ุ": 781,
      "ู": 782,
      "฿": 783,
      "เ": 784,
      "แ": 785,
      "โ": 786,
      "ใ": 787,
      "ไ": 788,
      "ๆ": 789,
      "็": 790,
      "่": 791,
      "้": 792,
      "๊": 793,
      "์": 794,
      "๒": 795,
      "๔": 796,
      "๕": 797,
      "๖": 798,
      "ກ": 799,
      "ລ": 800,
      "ວ": 801,
      "າ": 802,
      "ົ": 803,
      "ເ": 804,
      "່": 805,
      "།": 806,
      "ག": 807,
      "བ": 808,
      "འ": 809,
      "ུ": 810,
      "ྲ": 811,
      "࿇": 812,
      "࿏": 813,
      "က": 814,
      "ခ": 815,
      "င": 816,
      "စ": 817,
      "ည": 818,
      "တ": 819,
      "ဒ": 820,
      "ဓ": 821,
      "န": 822,
      "ပ": 823,
      "ဖ": 824,
      "ဗ": 825,
      "မ": 826,
      "ရ": 827,
      "ဝ": 828,
      "ာ": 829,
      "ိ": 830,
      "ီ": 831,
      "ု": 832,
      "ေ": 833,
      "့": 834,
      "း": 835,
      "္": 836,
      "်": 837,
      "ြ": 838,
      "ှ": 839,
      "၊": 840,
      "ა": 841,
      "ე": 842,
      "ვ": 843,
      "თ": 844,
      "ი": 845,
      "ლ": 846,
      "მ": 847,
      "ო": 848,
      "რ": 849,
      "ს": 850,
      "უ": 851,
      "ქ": 852,
      "ღ": 853,
      "ჰ": 854,
      "ᄀ": 855,
      "ᄁ": 856,
      "ᄂ": 857,
      "ᄃ": 858,
      "ᄅ": 859,
      "ᄆ": 860,
      "ᄇ": 861,
      "ᄈ": 862,
      "ᄉ": 863,
      "ᄋ": 864,
      "ᄌ": 865,
      "ᄎ": 866,
      "ᄏ": 867,
      "ᄐ": 868,
      "ᄑ": 869,
      "ᄒ": 870,
      "ᅡ": 871,
      "ᅢ": 872,
      "ᅣ": 873,
      "ᅥ": 874,
      "ᅦ": 875,
      "ᅧ": 876,
      "ᅨ": 877,
      "ᅩ": 878,
      "ᅪ": 879,
      "ᅬ": 880,
      "ᅭ": 881,
      "ᅮ": 882,
      "ᅯ": 883,
      "ᅲ": 884,
      "ᅳ": 885,
      "ᅴ": 886,
      "ᅵ": 887,
      "ᆨ": 888,
      "ᆪ": 889,
      "ᆫ": 890,
      "ᆭ": 891,
      "ᆯ": 892,
      "ᆷ": 893,
      "ᆸ": 894,
      "ᆹ": 895,
      "ᆼ": 896,
      "ᇂ": 897,
      "ሀ": 898,
      "ሁ": 899,
      "ሂ": 900,
      "ሃ": 901,
      "ሄ": 902,
      "ህ": 903,
      "ሆ": 904,
      "ሇ": 905,
      "ለ": 906,
      "ሉ": 907,
      "ሊ": 908,
      "ላ": 909,
      "ሌ": 910,
      "ል": 911,
      "ሎ": 912,
      "ሏ": 913,
      "ሐ": 914,
      "ሑ": 915,
      "ሒ": 916,
      "ሓ": 917,
      "ሔ": 918,
      "ሕ": 919,
      "ሖ": 920,
      "ሗ": 921,
      "መ": 922,
      "ሙ": 923,
      "ሚ": 924,
      "ማ": 925,
      "ሜ": 926,
      "ም": 927,
      "ሞ": 928,
      "ሟ": 929,
      "ሠ": 930,
      "ሡ": 931,
      "ሢ": 932,
      "ሣ": 933,
      "ሤ": 934,
      "ሥ": 935,
      "ሦ": 936,
      "ሧ": 937,
      "ረ": 938,
      "ሩ": 939,
      "ሪ": 940,
      "ራ": 941,
      "ሬ": 942,
      "ር": 943,
      "ሮ": 944,
      "ሯ": 945,
      "ሰ": 946,
      "ሱ": 947,
      "ሲ": 948,
      "ሳ": 949,
      "ሴ": 950,
      "ስ": 951,
      "ሶ": 952,
      "ሷ": 953,
      "ሸ": 954,
      "ሹ": 955,
      "ሺ": 956,
      "ሻ": 957,
      "ሼ": 958,
      "ሽ": 959,
      "ሾ": 960,
      "ሿ": 961,
      "ቀ": 962,
      "ቁ": 963,
      "ቂ": 964,
      "ቃ": 965,
      "ቄ": 966,
      "ቅ": 967,
      "ቆ": 968,
      "ቇ": 969,
      "ቈ": 970,
      "ቊ": 971,
      "ቋ": 972,
      "ቌ": 973,
      "ቍ": 974,
      "ቐ": 975,
      "ቑ": 976,
      "ቒ": 977,
      "ቓ": 978,
      "ቔ": 979,
      "ቕ": 980,
      "ቖ": 981,
      "ቘ": 982,
      "ቚ": 983,
      "ቛ": 984,
      "ቜ": 985,
      "ቝ": 986,
      "በ": 987,
      "ቡ": 988,
      "ቢ": 989,
      "ባ": 990,
      "ቤ": 991,
      "ብ": 992,
      "ቦ": 993,
      "ቧ": 994,
      "ቨ": 995,
      "ቩ": 996,
      "ቪ": 997,
      "ቫ": 998,
      "ቬ": 999,
      "ቭ": 1000,
      "ቮ": 1001,
      "ቯ": 1002,
      "ተ": 1003,
      "ቱ": 1004,
      "ቲ": 1005,
      "ታ": 1006,
      "ቴ": 1007,
      "ት": 1008,
      "ቶ": 1009,
      "ቷ": 1010,
      "ቸ": 1011,
      "ቹ": 1012,
      "ቺ": 1013,
      "ቻ": 1014,
      "ቼ": 1015,
      "ች": 1016,
      "ቾ": 1017,
      "ቿ": 1018,
      "ኀ": 1019,
      "ኁ": 1020,
      "ኂ": 1021,
      "ኃ": 1022,
      "ኄ": 1023,
      "ኅ": 1024,
      "ኆ": 1025,
      "ኇ": 1026,
      "ኈ": 1027,
      "ኊ": 1028,
      "ኋ": 1029,
      "ኌ": 1030,
      "ኍ": 1031,
      "኎": 1032,
      "኏": 1033,
      "ነ": 1034,
      "ኑ": 1035,
      "ኒ": 1036,
      "ና": 1037,
      "ኔ": 1038,
      "ን": 1039,
      "ኖ": 1040,
      "ኗ": 1041,
      "ኘ": 1042,
      "ኙ": 1043,
      "ኚ": 1044,
      "ኛ": 1045,
      "ኜ": 1046,
      "ኝ": 1047,
      "ኞ": 1048,
      "ኟ": 1049,
      "አ": 1050,
      "ኡ": 1051,
      "ኢ": 1052,
      "ኣ": 1053,
      "ኤ": 1054,
      "እ": 1055,
      "ኦ": 1056,
      "ኧ": 1057,
      "ከ": 1058,
      "ኩ": 1059,
      "ኪ": 1060,
      "ካ": 1061,
      "ኬ": 1062,
      "ክ": 1063,
      "ኮ": 1064,
      "ኯ": 1065,
      "ኰ": 1066,
      "ኲ": 1067,
      "ኳ": 1068,
      "ኴ": 1069,
      "ኵ": 1070,
      "኶": 1071,
      "ኸ": 1072,
      "ኹ": 1073,
      "ኺ": 1074,
      "ኻ": 1075,
      "ኼ": 1076,
      "ኽ": 1077,
      "ኾ": 1078,
      "኿": 1079,
      "ዀ": 1080,
      "ዂ": 1081,
      "ዃ": 1082,
      "ዄ": 1083,
      "ዅ": 1084,
      "ወ": 1085,
      "ዉ": 1086,
      "ዊ": 1087,
      "ዋ": 1088,
      "ዌ": 1089,
      "ው": 1090,
      "ዎ": 1091,
      "ዏ": 1092,
      "ዐ": 1093,
      "ዑ": 1094,
      "ዒ": 1095,
      "ዓ": 1096,
      "ዔ": 1097,
      "ዕ": 1098,
      "ዖ": 1099,
      "዗": 1100,
      "ዘ": 1101,
      "ዙ": 1102,
      "ዚ": 1103,
      "ዛ": 1104,
      "ዜ": 1105,
      "ዝ": 1106,
      "ዞ": 1107,
      "ዟ": 1108,
      "ዠ": 1109,
      "ዡ": 1110,
      "ዢ": 1111,
      "ዣ": 1112,
      "ዤ": 1113,
      "ዥ": 1114,
      "ዦ": 1115,
      "ዧ": 1116,
      "የ": 1117,
      "ዩ": 1118,
      "ዪ": 1119,
      "ያ": 1120,
      "ዬ": 1121,
      "ይ": 1122,
      "ዮ": 1123,
      "ዯ": 1124,
      "ደ": 1125,
      "ዱ": 1126,
      "ዲ": 1127,
      "ዳ": 1128,
      "ዴ": 1129,
      "ድ": 1130,
      "ዶ": 1131,
      "ዷ": 1132,
      "ዸ": 1133,
      "ዹ": 1134,
      "ዺ": 1135,
      "ዻ": 1136,
      "ዼ": 1137,
      "ዽ": 1138,
      "ዾ": 1139,
      "ዿ": 1140,
      "ጀ": 1141,
      "ጁ": 1142,
      "ጂ": 1143,
      "ጃ": 1144,
      "ጄ": 1145,
      "ጅ": 1146,
      "ጆ": 1147,
      "ጇ": 1148,
      "ገ": 1149,
      "ጉ": 1150,
      "ጊ": 1151,
      "ጋ": 1152,
      "ጌ": 1153,
      "ግ": 1154,
      "ጎ": 1155,
      "ጏ": 1156,
      "ጐ": 1157,
      "ጒ": 1158,
      "ጓ": 1159,
      "ጔ": 1160,
      "ጕ": 1161,
      "ጘ": 1162,
      "ጙ": 1163,
      "ጚ": 1164,
      "ጛ": 1165,
      "ጜ": 1166,
      "ጝ": 1167,
      "ጞ": 1168,
      "ጟ": 1169,
      "ጠ": 1170,
      "ጡ": 1171,
      "ጢ": 1172,
      "ጣ": 1173,
      "ጤ": 1174,
      "ጥ": 1175,
      "ጦ": 1176,
      "ጧ": 1177,
      "ጨ": 1178,
      "ጩ": 1179,
      "ጪ": 1180,
      "ጫ": 1181,
      "ጬ": 1182,
      "ጭ": 1183,
      "ጮ": 1184,
      "ጯ": 1185,
      "ጰ": 1186,
      "ጱ": 1187,
      "ጲ": 1188,
      "ጳ": 1189,
      "ጴ": 1190,
      "ጵ": 1191,
      "ጶ": 1192,
      "ጷ": 1193,
      "ጸ": 1194,
      "ጹ": 1195,
      "ጺ": 1196,
      "ጻ": 1197,
      "ጼ": 1198,
      "ጽ": 1199,
      "ጾ": 1200,
      "ጿ": 1201,
      "ፀ": 1202,
      "ፁ": 1203,
      "ፂ": 1204,
      "ፃ": 1205,
      "ፄ": 1206,
      "ፅ": 1207,
      "ፆ": 1208,
      "ፇ": 1209,
      "ፈ": 1210,
      "ፉ": 1211,
      "ፊ": 1212,
      "ፋ": 1213,
      "ፌ": 1214,
      "ፍ": 1215,
      "ፎ": 1216,
      "ፏ": 1217,
      "ፐ": 1218,
      "ፑ": 1219,
      "ፒ": 1220,
      "ፓ": 1221,
      "ፔ": 1222,
      "ፕ": 1223,
      "ፖ": 1224,
      "ፗ": 1225,
      "ፘ": 1226,
      "ፙ": 1227,
      "ፚ": 1228,
      "፛": 1229,
      "፜": 1230,
      "፝": 1231,
      "፞": 1232,
      "፟": 1233,
      "፠": 1234,
      "፡": 1235,
      "።": 1236,
      "፣": 1237,
      "፤": 1238,
      "፥": 1239,
      "፦": 1240,
      "፧": 1241,
      "፨": 1242,
      "፩": 1243,
      "፪": 1244,
      "፫": 1245,
      "፬": 1246,
      "፭": 1247,
      "፮": 1248,
      "፯": 1249,
      "፰": 1250,
      "፱": 1251,
      "፲": 1252,
      "፳": 1253,
      "፴": 1254,
      "፵": 1255,
      "፶": 1256,
      "፷": 1257,
      "፸": 1258,
      "፹": 1259,
      "፺": 1260,
      "፻": 1261,
      "፼": 1262,
      "ᎀ": 1263,
      "ᎂ": 1264,
      "ᎃ": 1265,
      "᎐": 1266,
      "᎒": 1267,
      "᎓": 1268,
      "᎔": 1269,
      "᎖": 1270,
      "᎗": 1271,
      "᎘": 1272,
      "Ꭰ": 1273,
      "Ꭹ": 1274,
      "Ꮃ": 1275,
      "Ꮒ": 1276,
      "Ꮳ": 1277,
      "Ꮻ": 1278,
      "Ꮿ": 1279,
      "Ᏼ": 1280,
      "᐀": 1281,
      "ᕡ": 1282,
      "ក": 1283,
      "គ": 1284,
      "ង": 1285,
      "ជ": 1286,
      "ត": 1287,
      "ទ": 1288,
      "ន": 1289,
      "ប": 1290,
      "ព": 1291,
      "ភ": 1292,
      "ម": 1293,
      "យ": 1294,
      "រ": 1295,
      "ស": 1296,
      "អ": 1297,
      "ា": 1298,
      "ី": 1299,
      "ុ": 1300,
      "េ": 1301,
      "ោ": 1302,
      "ំ": 1303,
      "៊": 1304,
      "់": 1305,
      "្": 1306,
      "ៗ": 1307,
      "ᤰ": 1308,
      "ᤱ": 1309,
      "ᥐ": 1310,
      "ᴀ": 1311,
      "ᴅ": 1312,
      "ᴇ": 1313,
      "ᴊ": 1314,
      "ᴍ": 1315,
      "ᴏ": 1316,
      "ᴛ": 1317,
      "ᴜ": 1318,
      "ᴤ": 1319,
      "ᴰ": 1320,
      "ᴴ": 1321,
      "​": 1322,
      "‌": 1323,
      "‍": 1324,
      "‎": 1325,
      "‏": 1326,
      "‐": 1327,
      "‑": 1328,
      "‒": 1329,
      "–": 1330,
      "—": 1331,
      "―": 1332,
      "‗": 1333,
      "‘": 1334,
      "’": 1335,
      "‚": 1336,
      "‛": 1337,
      "“": 1338,
      "”": 1339,
      "„": 1340,
      "‟": 1341,
      "†": 1342,
      "‡": 1343,
      "•": 1344,
      "․": 1345,
      "…": 1346,
      "‪": 1347,
      "‫": 1348,
      "‬": 1349,
      "‭": 1350,
      "‰": 1351,
      "′": 1352,
      "″": 1353,
      "‶": 1354,
      "‹": 1355,
      "›": 1356,
      "※": 1357,
      "‼": 1358,
      "⁄": 1359,
      "⁉": 1360,
      "⁠": 1361,
      "⁮": 1362,
      "⁯": 1363,
      "⁰": 1364,
      "₋": 1365,
      "₡": 1366,
      "₩": 1367,
      "₪": 1368,
      "€": 1369,
      "₱": 1370,
      "₹": 1371,
      "₺": 1372,
      "₼": 1373,
      "⃒": 1374,
      "⃣": 1375,
      "℃": 1376,
      "℅": 1377,
      "ℓ": 1378,
      "№": 1379,
      "℗": 1380,
      "℠": 1381,
      "™": 1382,
      "Ⅎ": 1383,
      "⅓": 1384,
      "Ⅱ": 1385,
      "Ⅲ": 1386,
      "ⅼ": 1387,
      "Ↄ": 1388,
      "←": 1389,
      "↑": 1390,
      "→": 1391,
      "↓": 1392,
      "↔": 1393,
      "↘": 1394,
      "↠": 1395,
      "↩": 1396,
      "↳": 1397,
      "⇄": 1398,
      "⇐": 1399,
      "⇒": 1400,
      "⇝": 1401,
      "⇡": 1402,
      "⇣": 1403,
      "⇿": 1404,
      "∅": 1405,
      "∇": 1406,
      "∈": 1407,
      "∎": 1408,
      "∑": 1409,
      "−": 1410,
      "∕": 1411,
      "∗": 1412,
      "∘": 1413,
      "∙": 1414,
      "√": 1415,
      "∞": 1416,
      "∠": 1417,
      "∩": 1418,
      "∪": 1419,
      "∫": 1420,
      "∴": 1421,
      "∵": 1422,
      "∶": 1423,
      "∷": 1424,
      "∼": 1425,
      "∽": 1426,
      "≈": 1427,
      "≤": 1428,
      "≥": 1429,
      "≦": 1430,
      "≧": 1431,
      "⊂": 1432,
      "⊆": 1433,
      "⊊": 1434,
      "⊕": 1435,
      "⊖": 1436,
      "⊰": 1437,
      "⊱": 1438,
      "⋅": 1439,
      "⋆": 1440,
      "⋈": 1441,
      "⋔": 1442,
      "⋮": 1443,
      "⌂": 1444,
      "⎄": 1445,
      "⎅": 1446,
      "⎆": 1447,
      "⏩": 1448,
      "⏰": 1449,
      "①": 1450,
      "②": 1451,
      "③": 1452,
      "⓫": 1453,
      "⓬": 1454,
      "⓭": 1455,
      "⓮": 1456,
      "⓯": 1457,
      "⓰": 1458,
      "⓱": 1459,
      "⓲": 1460,
      "⓳": 1461,
      "⓴": 1462,
      "─": 1463,
      "━": 1464,
      "│": 1465,
      "┇": 1466,
      "┈": 1467,
      "═": 1468,
      "║": 1469,
      "╬": 1470,
      "▄": 1471,
      "█": 1472,
      "▌": 1473,
      "■": 1474,
      "□": 1475,
      "▪": 1476,
      "▲": 1477,
      "▶": 1478,
      "►": 1479,
      "▻": 1480,
      "▼": 1481,
      "▽": 1482,
      "◄": 1483,
      "◅": 1484,
      "◆": 1485,
      "◉": 1486,
      "◊": 1487,
      "○": 1488,
      "◌": 1489,
      "◎": 1490,
      "●": 1491,
      "◙": 1492,
      "◦": 1493,
      "◾": 1494,
      "☀": 1495,
      "☂": 1496,
      "★": 1497,
      "☆": 1498,
      "☈": 1499,
      "☎": 1500,
      "☏": 1501,
      "☑": 1502,
      "☕": 1503,
      "☚": 1504,
      "☛": 1505,
      "☜": 1506,
      "☝": 1507,
      "☞": 1508,
      "☟": 1509,
      "☠": 1510,
      "☢": 1511,
      "☥": 1512,
      "☩": 1513,
      "☪": 1514,
      "☹": 1515,
      "☺": 1516,
      "☻": 1517,
      "☼": 1518,
      "♀": 1519,
      "♔": 1520,
      "♚": 1521,
      "♠": 1522,
      "♡": 1523,
      "♣": 1524,
      "♥": 1525,
      "♦": 1526,
      "♨": 1527,
      "♩": 1528,
      "♪": 1529,
      "♫": 1530,
      "♬": 1531,
      "♽": 1532,
      "⚀": 1533,
      "⚅": 1534,
      "⚘": 1535,
      "⚛": 1536,
      "⚠": 1537,
      "⚡": 1538,
      "⚪": 1539,
      "⚫": 1540,
      "⚽": 1541,
      "⛄": 1542,
      "⛔": 1543,
      "⛪": 1544,
      "⛳": 1545,
      "✅": 1546,
      "✆": 1547,
      "✈": 1548,
      "✉": 1549,
      "✊": 1550,
      "✋": 1551,
      "✌": 1552,
      "✍": 1553,
      "✎": 1554,
      "✏": 1555,
      "✓": 1556,
      "✔": 1557,
      "✘": 1558,
      "✝": 1559,
      "✞": 1560,
      "✟": 1561,
      "✤": 1562,
      "✦": 1563,
      "✧": 1564,
      "✨": 1565,
      "✳": 1566,
      "✿": 1567,
      "❀": 1568,
      "❁": 1569,
      "❌": 1570,
      "❎": 1571,
      "❑": 1572,
      "❓": 1573,
      "❖": 1574,
      "❗": 1575,
      "❣": 1576,
      "❤": 1577,
      "❦": 1578,
      "❯": 1579,
      "❶": 1580,
      "❷": 1581,
      "❸": 1582,
      "❹": 1583,
      "❺": 1584,
      "❻": 1585,
      "❼": 1586,
      "❾": 1587,
      "❿": 1588,
      "➊": 1589,
      "➋": 1590,
      "➌": 1591,
      "➍": 1592,
      "➎": 1593,
      "➏": 1594,
      "➐": 1595,
      "➑": 1596,
      "➒": 1597,
      "➓": 1598,
      "➔": 1599,
      "➕": 1600,
      "➖": 1601,
      "➚": 1602,
      "➜": 1603,
      "➝": 1604,
      "➠": 1605,
      "➡": 1606,
      "➢": 1607,
      "➤": 1608,
      "➥": 1609,
      "➦": 1610,
      "➧": 1611,
      "➳": 1612,
      "⟵": 1613,
      "⤴": 1614,
      "⦁": 1615,
      "⨳": 1616,
      "⩨": 1617,
      "⩩": 1618,
      "⬇": 1619,
      "⭐": 1620,
      "⭕": 1621,
      "Ⱶ": 1622,
      "ⴰ": 1623,
      "ⴼ": 1624,
      "ⵏ": 1625,
      "ⶀ": 1626,
      "ⶂ": 1627,
      "ⶃ": 1628,
      "ⶆ": 1629,
      "ⶇ": 1630,
      "ⶈ": 1631,
      "ⶉ": 1632,
      "ⶌ": 1633,
      "ⶎ": 1634,
      "ⶏ": 1635,
      "ⶒ": 1636,
      "⶙": 1637,
      "ⶨ": 1638,
      "ⶩ": 1639,
      "ⶪ": 1640,
      "ⶫ": 1641,
      "ⶭ": 1642,
      "ⶰ": 1643,
      "ⶳ": 1644,
      "ⶴ": 1645,
      "ⶵ": 1646,
      "ⶽ": 1647,
      "ⷃ": 1648,
      "ⷅ": 1649,
      "ⷈ": 1650,
      "ⷉ": 1651,
      "ⷋ": 1652,
      "ⷐ": 1653,
      "ⷛ": 1654,
      "ⷝ": 1655,
      "、": 1656,
      "。": 1657,
      "〈": 1658,
      "〉": 1659,
      "《": 1660,
      "》": 1661,
      "「": 1662,
      "」": 1663,
      "【": 1664,
      "】": 1665,
      "あ": 1666,
      "い": 1667,
      "う": 1668,
      "え": 1669,
      "か": 1670,
      "き": 1671,
      "こ": 1672,
      "さ": 1673,
      "し": 1674,
      "す": 1675,
      "そ": 1676,
      "つ": 1677,
      "て": 1678,
      "と": 1679,
      "な": 1680,
      "に": 1681,
      "の": 1682,
      "は": 1683,
      "ふ": 1684,
      "ほ": 1685,
      "ま": 1686,
      "も": 1687,
      "や": 1688,
      "ょ": 1689,
      "よ": 1690,
      "り": 1691,
      "る": 1692,
      "を": 1693,
      "ん": 1694,
      "゙": 1695,
      "゚": 1696,
      "ア": 1697,
      "イ": 1698,
      "オ": 1699,
      "カ": 1700,
      "ク": 1701,
      "ケ": 1702,
      "コ": 1703,
      "シ": 1704,
      "ス": 1705,
      "セ": 1706,
      "ソ": 1707,
      "タ": 1708,
      "ッ": 1709,
      "ツ": 1710,
      "テ": 1711,
      "ト": 1712,
      "ハ": 1713,
      "ヒ": 1714,
      "ヘ": 1715,
      "ホ": 1716,
      "マ": 1717,
      "ミ": 1718,
      "ム": 1719,
      "モ": 1720,
      "ラ": 1721,
      "リ": 1722,
      "ル": 1723,
      "レ": 1724,
      "ロ": 1725,
      "ワ": 1726,
      "ン": 1727,
      "・": 1728,
      "ー": 1729,
      "ㄩ": 1730,
      "㎡": 1731,
      "㗹": 1732,
      "㙀": 1733,
      "㜎": 1734,
      "㝕": 1735,
      "一": 1736,
      "七": 1737,
      "三": 1738,
      "上": 1739,
      "下": 1740,
      "不": 1741,
      "与": 1742,
      "东": 1743,
      "个": 1744,
      "中": 1745,
      "久": 1746,
      "么": 1747,
      "也": 1748,
      "了": 1749,
      "事": 1750,
      "亚": 1751,
      "些": 1752,
      "交": 1753,
      "产": 1754,
      "京": 1755,
      "人": 1756,
      "仇": 1757,
      "今": 1758,
      "仙": 1759,
      "代": 1760,
      "以": 1761,
      "仲": 1762,
      "件": 1763,
      "任": 1764,
      "伏": 1765,
      "低": 1766,
      "何": 1767,
      "你": 1768,
      "俄": 1769,
      "俗": 1770,
      "信": 1771,
      "傳": 1772,
      "優": 1773,
      "兄": 1774,
      "克": 1775,
      "免": 1776,
      "全": 1777,
      "八": 1778,
      "公": 1779,
      "共": 1780,
      "兴": 1781,
      "几": 1782,
      "出": 1783,
      "切": 1784,
      "別": 1785,
      "动": 1786,
      "動": 1787,
      "勻": 1788,
      "包": 1789,
      "匈": 1790,
      "北": 1791,
      "医": 1792,
      "十": 1793,
      "卓": 1794,
      "南": 1795,
      "卡": 1796,
      "厅": 1797,
      "厚": 1798,
      "去": 1799,
      "及": 1800,
      "反": 1801,
      "发": 1802,
      "受": 1803,
      "古": 1804,
      "叭": 1805,
      "台": 1806,
      "史": 1807,
      "叶": 1808,
      "号": 1809,
      "司": 1810,
      "名": 1811,
      "向": 1812,
      "吗": 1813,
      "启": 1814,
      "吳": 1815,
      "吴": 1816,
      "周": 1817,
      "命": 1818,
      "和": 1819,
      "品": 1820,
      "哉": 1821,
      "哪": 1822,
      "哲": 1823,
      "商": 1824,
      "善": 1825,
      "喇": 1826,
      "喜": 1827,
      "喾": 1828,
      "嘅": 1829,
      "嘉": 1830,
      "器": 1831,
      "噪": 1832,
      "四": 1833,
      "固": 1834,
      "国": 1835,
      "國": 1836,
      "圣": 1837,
      "在": 1838,
      "地": 1839,
      "场": 1840,
      "均": 1841,
      "坐": 1842,
      "坦": 1843,
      "型": 1844,
      "埃": 1845,
      "城": 1846,
      "堅": 1847,
      "場": 1848,
      "塚": 1849,
      "塞": 1850,
      "士": 1851,
      "売": 1852,
      "壹": 1853,
      "壽": 1854,
      "夕": 1855,
      "外": 1856,
      "多": 1857,
      "夜": 1858,
      "夢": 1859,
      "大": 1860,
      "天": 1861,
      "太": 1862,
      "夫": 1863,
      "奈": 1864,
      "奔": 1865,
      "女": 1866,
      "奴": 1867,
      "好": 1868,
      "妇": 1869,
      "妹": 1870,
      "姉": 1871,
      "委": 1872,
      "威": 1873,
      "媒": 1874,
      "子": 1875,
      "孔": 1876,
      "字": 1877,
      "孝": 1878,
      "孤": 1879,
      "学": 1880,
      "孫": 1881,
      "學": 1882,
      "它": 1883,
      "定": 1884,
      "容": 1885,
      "宽": 1886,
      "富": 1887,
      "察": 1888,
      "實": 1889,
      "尊": 1890,
      "小": 1891,
      "少": 1892,
      "尧": 1893,
      "尼": 1894,
      "尾": 1895,
      "局": 1896,
      "屋": 1897,
      "山": 1898,
      "岡": 1899,
      "島": 1900,
      "崎": 1901,
      "州": 1902,
      "市": 1903,
      "帝": 1904,
      "带": 1905,
      "帶": 1906,
      "常": 1907,
      "幌": 1908,
      "平": 1909,
      "年": 1910,
      "幽": 1911,
      "広": 1912,
      "庆": 1913,
      "应": 1914,
      "庖": 1915,
      "店": 1916,
      "度": 1917,
      "康": 1918,
      "廑": 1919,
      "廣": 1920,
      "式": 1921,
      "弟": 1922,
      "弥": 1923,
      "張": 1924,
      "彥": 1925,
      "影": 1926,
      "微": 1927,
      "德": 1928,
      "徹": 1929,
      "忌": 1930,
      "志": 1931,
      "快": 1932,
      "怎": 1933,
      "性": 1934,
      "恋": 1935,
      "恩": 1936,
      "恭": 1937,
      "情": 1938,
      "愛": 1939,
      "感": 1940,
      "慕": 1941,
      "慧": 1942,
      "憲": 1943,
      "成": 1944,
      "我": 1945,
      "戸": 1946,
      "房": 1947,
      "扉": 1948,
      "拉": 1949,
      "拜": 1950,
      "括": 1951,
      "捌": 1952,
      "据": 1953,
      "排": 1954,
      "提": 1955,
      "播": 1956,
      "改": 1957,
      "敏": 1958,
      "数": 1959,
      "文": 1960,
      "斎": 1961,
      "斗": 1962,
      "斯": 1963,
      "新": 1964,
      "方": 1965,
      "於": 1966,
      "日": 1967,
      "时": 1968,
      "明": 1969,
      "是": 1970,
      "時": 1971,
      "晋": 1972,
      "暁": 1973,
      "曲": 1974,
      "最": 1975,
      "會": 1976,
      "月": 1977,
      "有": 1978,
      "末": 1979,
      "本": 1980,
      "札": 1981,
      "机": 1982,
      "李": 1983,
      "村": 1984,
      "束": 1985,
      "条": 1986,
      "来": 1987,
      "東": 1988,
      "松": 1989,
      "柒": 1990,
      "柔": 1991,
      "柴": 1992,
      "标": 1993,
      "树": 1994,
      "样": 1995,
      "格": 1996,
      "梁": 1997,
      "梅": 1998,
      "樂": 1999,
      "横": 2000,
      "橐": 2001,
      "機": 2002,
      "欢": 2003,
      "歌": 2004,
      "歐": 2005,
      "正": 2006,
      "武": 2007,
      "歷": 2008,
      "殺": 2009,
      "比": 2010,
      "毛": 2011,
      "民": 2012,
      "气": 2013,
      "気": 2014,
      "水": 2015,
      "汉": 2016,
      "汽": 2017,
      "沂": 2018,
      "法": 2019,
      "泛": 2020,
      "泽": 2021,
      "洋": 2022,
      "津": 2023,
      "活": 2024,
      "浜": 2025,
      "海": 2026,
      "消": 2027,
      "涨": 2028,
      "渡": 2029,
      "港": 2030,
      "游": 2031,
      "湘": 2032,
      "満": 2033,
      "漢": 2034,
      "潮": 2035,
      "澳": 2036,
      "瀬": 2037,
      "灣": 2038,
      "炜": 2039,
      "点": 2040,
      "無": 2041,
      "爲": 2042,
      "片": 2043,
      "物": 2044,
      "特": 2045,
      "牺": 2046,
      "狗": 2047,
      "猫": 2048,
      "玖": 2049,
      "玩": 2050,
      "玫": 2051,
      "现": 2052,
      "玲": 2053,
      "玻": 2054,
      "珊": 2055,
      "珮": 2056,
      "現": 2057,
      "瑰": 2058,
      "璃": 2059,
      "璠": 2060,
      "產": 2061,
      "用": 2062,
      "田": 2063,
      "発": 2064,
      "發": 2065,
      "白": 2066,
      "百": 2067,
      "的": 2068,
      "盤": 2069,
      "直": 2070,
      "着": 2071,
      "矢": 2072,
      "石": 2073,
      "码": 2074,
      "砍": 2075,
      "研": 2076,
      "確": 2077,
      "示": 2078,
      "祝": 2079,
      "神": 2080,
      "禁": 2081,
      "禅": 2082,
      "禹": 2083,
      "秋": 2084,
      "穩": 2085,
      "究": 2086,
      "窪": 2087,
      "童": 2088,
      "筠": 2089,
      "签": 2090,
      "節": 2091,
      "簡": 2092,
      "粉": 2093,
      "精": 2094,
      "素": 2095,
      "組": 2096,
      "維": 2097,
      "緒": 2098,
      "線": 2099,
      "總": 2100,
      "纤": 2101,
      "细": 2102,
      "经": 2103,
      "维": 2104,
      "義": 2105,
      "羲": 2106,
      "習": 2107,
      "老": 2108,
      "考": 2109,
      "而": 2110,
      "耶": 2111,
      "聞": 2112,
      "聯": 2113,
      "肉": 2114,
      "能": 2115,
      "腳": 2116,
      "臨": 2117,
      "與": 2118,
      "船": 2119,
      "色": 2120,
      "芝": 2121,
      "芭": 2122,
      "花": 2123,
      "芷": 2124,
      "英": 2125,
      "茶": 2126,
      "菇": 2127,
      "華": 2128,
      "萨": 2129,
      "葛": 2130,
      "蕉": 2131,
      "薬": 2132,
      "藤": 2133,
      "蝶": 2134,
      "行": 2135,
      "表": 2136,
      "製": 2137,
      "要": 2138,
      "親": 2139,
      "言": 2140,
      "許": 2141,
      "試": 2142,
      "語": 2143,
      "読": 2144,
      "警": 2145,
      "讓": 2146,
      "详": 2147,
      "语": 2148,
      "说": 2149,
      "豪": 2150,
      "豹": 2151,
      "貓": 2152,
      "財": 2153,
      "費": 2154,
      "質": 2155,
      "賽": 2156,
      "贺": 2157,
      "趙": 2158,
      "趣": 2159,
      "蹬": 2160,
      "身": 2161,
      "車": 2162,
      "軟": 2163,
      "較": 2164,
      "載": 2165,
      "輪": 2166,
      "轉": 2167,
      "辛": 2168,
      "農": 2169,
      "迎": 2170,
      "近": 2171,
      "这": 2172,
      "這": 2173,
      "速": 2174,
      "週": 2175,
      "逸": 2176,
      "過": 2177,
      "道": 2178,
      "遷": 2179,
      "郎": 2180,
      "郑": 2181,
      "郡": 2182,
      "部": 2183,
      "都": 2184,
      "醒": 2185,
      "里": 2186,
      "重": 2187,
      "金": 2188,
      "鉄": 2189,
      "錢": 2190,
      "録": 2191,
      "针": 2192,
      "钩": 2193,
      "钱": 2194,
      "锯": 2195,
      "長": 2196,
      "門": 2197,
      "閉": 2198,
      "間": 2199,
      "關": 2200,
      "间": 2201,
      "阜": 2202,
      "阪": 2203,
      "院": 2204,
      "除": 2205,
      "陳": 2206,
      "陸": 2207,
      "陽": 2208,
      "隊": 2209,
      "雅": 2210,
      "雪": 2211,
      "零": 2212,
      "電": 2213,
      "靈": 2214,
      "青": 2215,
      "静": 2216,
      "非": 2217,
      "韓": 2218,
      "音": 2219,
      "韻": 2220,
      "飾": 2221,
      "餅": 2222,
      "餐": 2223,
      "香": 2224,
      "馬": 2225,
      "馳": 2226,
      "駕": 2227,
      "駛": 2228,
      "驗": 2229,
      "體": 2230,
      "高": 2231,
      "魚": 2232,
      "鲁": 2233,
      "鳥": 2234,
      "黃": 2235,
      "黄": 2236,
      "黑": 2237,
      "點": 2238,
      "ꙗ": 2239,
      "": 2240,
      "": 2241,
      "": 2242,
      "": 2243,
      "": 2244,
      "": 2245,
      "": 2246,
      "": 2247,
      "": 2248,
      "": 2249,
      "": 2250,
      "": 2251,
      "": 2252,
      "": 2253,
      "": 2254,
      "": 2255,
      "": 2256,
      "": 2257,
      "": 2258,
      "": 2259,
      "": 2260,
      "": 2261,
      "": 2262,
      "": 2263,
      "": 2264,
      "": 2265,
      "": 2266,
      "": 2267,
      "": 2268,
      "": 2269,
      "": 2270,
      "": 2271,
      "": 2272,
      "": 2273,
      "": 2274,
      "": 2275,
      "": 2276,
      "": 2277,
      "": 2278,
      "": 2279,
      "": 2280,
      "": 2281,
      "": 2282,
      "": 2283,
      "": 2284,
      "": 2285,
      "": 2286,
      "": 2287,
      "": 2288,
      "": 2289,
      "": 2290,
      "": 2291,
      "": 2292,
      "": 2293,
      "": 2294,
      "": 2295,
      "": 2296,
      "": 2297,
      "": 2298,
      "": 2299,
      "": 2300,
      "": 2301,
      "": 2302,
      "": 2303,
      "": 2304,
      "": 2305,
      "": 2306,
      "": 2307,
      "": 2308,
      "": 2309,
      "": 2310,
      "": 2311,
      "": 2312,
      "": 2313,
      "": 2314,
      "": 2315,
      "": 2316,
      "": 2317,
      "": 2318,
      "": 2319,
      "": 2320,
      "": 2321,
      "": 2322,
      "": 2323,
      "": 2324,
      "": 2325,
      "": 2326,
      "": 2327,
      "": 2328,
      "": 2329,
      "": 2330,
      "": 2331,
      "": 2332,
      "": 2333,
      "": 2334,
      "": 2335,
      "": 2336,
      "": 2337,
      "": 2338,
      "": 2339,
      "": 2340,
      "": 2341,
      "": 2342,
      "": 2343,
      "": 2344,
      "": 2345,
      "": 2346,
      "": 2347,
      "": 2348,
      "": 2349,
      "": 2350,
      "": 2351,
      "": 2352,
      "": 2353,
      "": 2354,
      "": 2355,
      "": 2356,
      "": 2357,
      "": 2358,
      "": 2359,
      "": 2360,
      "": 2361,
      "": 2362,
      "": 2363,
      "": 2364,
      "": 2365,
      "": 2366,
      "": 2367,
      "": 2368,
      "": 2369,
      "": 2370,
      "ﬀ": 2371,
      "ﬁ": 2372,
      "﴾": 2373,
      "﴿": 2374,
      "ﷺ": 2375,
      "ﷻ": 2376,
      "﷽": 2377,
      "️": 2378,
      "︵": 2379,
      "ﺃ": 2380,
      "ﺄ": 2381,
      "ﺍ": 2382,
      "ﺎ": 2383,
      "ﺑ": 2384,
      "ﺟ": 2385,
      "ﺢ": 2386,
      "ﺮ": 2387,
      "ﺱ": 2388,
      "ﺻ": 2389,
      "ﻋ": 2390,
      "ﻌ": 2391,
      "ﻓ": 2392,
      "ﻔ": 2393,
      "ﻟ": 2394,
      "ﻠ": 2395,
      "ﻣ": 2396,
      "ﻤ": 2397,
      "ﻦ": 2398,
      "ﻨ": 2399,
      "ﻩ": 2400,
      "ﻪ": 2401,
      "ﻬ": 2402,
      "ﻭ": 2403,
      "ﻮ": 2404,
      "ﻯ": 2405,
      "ﻰ": 2406,
      "﻾": 2407,
      "﻿": 2408,
      "！": 2409,
      "（": 2410,
      "）": 2411,
      "，": 2412,
      "－": 2413,
      "／": 2414,
      "２": 2415,
      "：": 2416,
      "？": 2417,
      "･": 2418,
      "￼": 2419,
      "�": 2420,
      "𐌁": 2421,
      "𐌆": 2422,
      "𐌇": 2423,
      "𐌈": 2424,
      "𐌊": 2425,
      "𐌌": 2426,
      "𐌍": 2427,
      "𐌎": 2428,
      "𐌏": 2429,
      "𐌐": 2430,
      "𐌑": 2431,
      "𐌒": 2432,
      "𐌓": 2433,
      "𐌖": 2434,
      "𐌗": 2435,
      "𐌘": 2436,
      "𐌙": 2437,
      "𐌚": 2438,
      "𐌠": 2439,
      "𐌡": 2440,
      "𐌢": 2441,
      "𐩢": 2442,
      "𐩧": 2443,
      "𐩨": 2444,
      "𐩪": 2445,
      "𐩬": 2446,
      "𝗛": 2447,
      "𝗞": 2448,
      "𝗣": 2449,
      "𝗧": 2450,
      "𝗩": 2451,
      "𝗬": 2452,
      "𝗮": 2453,
      "𝗲": 2454,
      "𝗶": 2455,
      "𝗸": 2456,
      "𝗺": 2457,
      "𝗻": 2458,
      "𝗼": 2459,
      "𝗿": 2460,
      "𝘁": 2461,
      "𝘄": 2462,
      "𝟬": 2463,
      "𝟭": 2464,
      "𝟮": 2465,
      "𝟰": 2466,
      "𝟳": 2467,
      "🅾": 2468,
      "🆕": 2469,
      "🆚": 2470,
      "🇦": 2471,
      "🇧": 2472,
      "🇨": 2473,
      "🇩": 2474,
      "🇪": 2475,
      "🇫": 2476,
      "🇬": 2477,
      "🇭": 2478,
      "🇮": 2479,
      "🇯": 2480,
      "🇰": 2481,
      "🇱": 2482,
      "🇲": 2483,
      "🇳": 2484,
      "🇴": 2485,
      "🇶": 2486,
      "🇷": 2487,
      "🇸": 2488,
      "🇹": 2489,
      "🇺": 2490,
      "🇻": 2491,
      "🇼": 2492,
      "🇾": 2493,
      "🇿": 2494,
      "🈂": 2495,
      "🌈": 2496,
      "🌋": 2497,
      "🌑": 2498,
      "🌓": 2499,
      "🌕": 2500,
      "🌙": 2501,
      "🌟": 2502,
      "🌲": 2503,
      "🌴": 2504,
      "🌷": 2505,
      "🌹": 2506,
      "🌺": 2507,
      "🌻": 2508,
      "🌼": 2509,
      "🌿": 2510,
      "🍆": 2511,
      "🍇": 2512,
      "🍉": 2513,
      "🍋": 2514,
      "🍔": 2515,
      "🍛": 2516,
      "🍞": 2517,
      "🍮": 2518,
      "🍰": 2519,
      "🍹": 2520,
      "🍻": 2521,
      "🍽": 2522,
      "🍾": 2523,
      "🎁": 2524,
      "🎂": 2525,
      "🎈": 2526,
      "🎉": 2527,
      "🎊": 2528,
      "🎋": 2529,
      "🎓": 2530,
      "🎟": 2531,
      "🎤": 2532,
      "🎥": 2533,
      "🎨": 2534,
      "🎬": 2535,
      "🎰": 2536,
      "🎵": 2537,
      "🎶": 2538,
      "🎷": 2539,
      "🎺": 2540,
      "🎼": 2541,
      "🏆": 2542,
      "🏔": 2543,
      "🏢": 2544,
      "🏰": 2545,
      "🏴": 2546,
      "🏻": 2547,
      "🏼": 2548,
      "🏽": 2549,
      "🏾": 2550,
      "🏿": 2551,
      "🐍": 2552,
      "🐕": 2553,
      "🐘": 2554,
      "🐢": 2555,
      "🐶": 2556,
      "👀": 2557,
      "👁": 2558,
      "👂": 2559,
      "👅": 2560,
      "👆": 2561,
      "👇": 2562,
      "👈": 2563,
      "👉": 2564,
      "👋": 2565,
      "👌": 2566,
      "👍": 2567,
      "👎": 2568,
      "👏": 2569,
      "👐": 2570,
      "👑": 2571,
      "👗": 2572,
      "👙": 2573,
      "👜": 2574,
      "👥": 2575,
      "👧": 2576,
      "👨": 2577,
      "👩": 2578,
      "👪": 2579,
      "👫": 2580,
      "👬": 2581,
      "👮": 2582,
      "👱": 2583,
      "👽": 2584,
      "💀": 2585,
      "💃": 2586,
      "💄": 2587,
      "💋": 2588,
      "💍": 2589,
      "💎": 2590,
      "💏": 2591,
      "💐": 2592,
      "💑": 2593,
      "💒": 2594,
      "💓": 2595,
      "💔": 2596,
      "💕": 2597,
      "💖": 2598,
      "💗": 2599,
      "💘": 2600,
      "💙": 2601,
      "💚": 2602,
      "💛": 2603,
      "💜": 2604,
      "💝": 2605,
      "💞": 2606,
      "💟": 2607,
      "💡": 2608,
      "💢": 2609,
      "💥": 2610,
      "💦": 2611,
      "💪": 2612,
      "💫": 2613,
      "💯": 2614,
      "💰": 2615,
      "💺": 2616,
      "💻": 2617,
      "📈": 2618,
      "📌": 2619,
      "📖": 2620,
      "📚": 2621,
      "📜": 2622,
      "📝": 2623,
      "📣": 2624,
      "📨": 2625,
      "📫": 2626,
      "📰": 2627,
      "📱": 2628,
      "📲": 2629,
      "📷": 2630,
      "📻": 2631,
      "📽": 2632,
      "🔃": 2633,
      "🔈": 2634,
      "🔊": 2635,
      "🔎": 2636,
      "🔐": 2637,
      "🔒": 2638,
      "🔔": 2639,
      "🔝": 2640,
      "🔞": 2641,
      "🔥": 2642,
      "🔫": 2643,
      "🔰": 2644,
      "🔴": 2645,
      "🔵": 2646,
      "🔹": 2647,
      "🕊": 2648,
      "🕎": 2649,
      "🖐": 2650,
      "🖕": 2651,
      "🗒": 2652,
      "🗞": 2653,
      "🗣": 2654,
      "🗨": 2655,
      "🗼": 2656,
      "🗽": 2657,
      "🗿": 2658,
      "😀": 2659,
      "😁": 2660,
      "😂": 2661,
      "😃": 2662,
      "😄": 2663,
      "😅": 2664,
      "😆": 2665,
      "😇": 2666,
      "😈": 2667,
      "😉": 2668,
      "😊": 2669,
      "😋": 2670,
      "😌": 2671,
      "😍": 2672,
      "😎": 2673,
      "😏": 2674,
      "😐": 2675,
      "😒": 2676,
      "😓": 2677,
      "😔": 2678,
      "😕": 2679,
      "😗": 2680,
      "😘": 2681,
      "😙": 2682,
      "😚": 2683,
      "😛": 2684,
      "😜": 2685,
      "😝": 2686,
      "😞": 2687,
      "😟": 2688,
      "😠": 2689,
      "😡": 2690,
      "😢": 2691,
      "😣": 2692,
      "😥": 2693,
      "😦": 2694,
      "😨": 2695,
      "😫": 2696,
      "😭": 2697,
      "😰": 2698,
      "😱": 2699,
      "😲": 2700,
      "😳": 2701,
      "😴": 2702,
      "🙁": 2703,
      "🙂": 2704,
      "🙄": 2705,
      "🙆": 2706,
      "🙈": 2707,
      "🙊": 2708,
      "🙋": 2709,
      "🙌": 2710,
      "🙏": 2711,
      "🚀": 2712,
      "🚌": 2713,
      "🚏": 2714,
      "🚘": 2715,
      "🚙": 2716,
      "🚦": 2717,
      "🚩": 2718,
      "🚶": 2719,
      "🛌": 2720,
      "🛎": 2721,
      "🛑": 2722,
      "🛰": 2723,
      "🛸": 2724,
      "🤐": 2725,
      "🤔": 2726,
      "🤗": 2727,
      "🤘": 2728,
      "🤙": 2729,
      "🤞": 2730,
      "🤟": 2731,
      "🤣": 2732,
      "🤤": 2733,
      "🤦": 2734,
      "🤨": 2735,
      "🤩": 2736,
      "🤪": 2737,
      "🤭": 2738,
      "🤰": 2739,
      "🤱": 2740,
      "🤴": 2741,
      "🦁": 2742,
      "🦃": 2743,
      "🦍": 2744,
      "🦑": 2745,
      "🧐": 2746,
      "🧒": 2747,
      "🧚": 2748,
      "🧡": 2749,
      "󠀰": 2750,
      "󠀷": 2751,
      "󠁴": 2752,
      "󠁺": 2753,
      "󠁿": 2754,
      "􏰀": 2755,
      "##1": 2756,
      "##ዱ": 2757,
      "##ን": 2758,
      "##ዶ": 2759,
      "##ች": 2760,
      "##ና": 2761,
      "##አ": 2762,
      "##ይ": 2763,
      "##ቮ": 2764,
      "##ሪ": 2765,
      "##ኮ": 2766,
      "##ስ": 2767,
      "##ት": 2768,
      "##ለ": 2769,
      "##ሀ": 2770,
      "##ገ": 2771,
      "##ቷ": 2772,
      "##ደ": 2773,
      "##ሚ": 2774,
      "##ጠ": 2775,
      "##ር": 2776,
      "##ጉ": 2777,
      "##ላ": 2778,
      "##ቸ": 2779,
      "##ው": 2780,
      "##L": 2781,
      "##M": 2782,
      "##ራ": 2783,
      "##ድ": 2784,
      "##ተ": 2785,
      "##ነ": 2786,
      "##ቃ": 2787,
      "##ባ": 2788,
      "##ፈ": 2789,
      "##ረ": 2790,
      "##ል": 2791,
      "##ኝ": 2792,
      "##ቤ": 2793,
      "##ያ": 2794,
      "##በ": 2795,
      "##ጡ": 2796,
      "##ሉ": 2797,
      "##ዓ": 2798,
      "##ዊ": 2799,
      "##ዳ": 2800,
      "##ዉ": 2801,
      "##ጥ": 2802,
      "##ሎ": 2803,
      "##ዎ": 2804,
      "##n": 2805,
      "##t": 2806,
      "##e": 2807,
      "##r": 2808,
      "##m": 2809,
      "##i": 2810,
      "##l": 2811,
      "##y": 2812,
      "##ዲ": 2813,
      "##ቀ": 2814,
      "##ብ": 2815,
      "##ጫ": 2816,
      "##ቕ": 2817,
      "##ኑ": 2818,
      "##ጀ": 2819,
      "##ጭ": 2820,
      "##ቅ": 2821,
      "##ታ": 2822,
      "##ም": 2823,
      "##ሳ": 2824,
      "##ሰ": 2825,
      "##ጦ": 2826,
      "##ኣ": 2827,
      "##ዝ": 2828,
      "##መ": 2829,
      "##ከ": 2830,
      "##ቁ": 2831,
      "##ጣ": 2832,
      "##ኤ": 2833,
      "##ህ": 2834,
      "##ጸ": 2835,
      "##f": 2836,
      "##c": 2837,
      "##ፂ": 2838,
      "##ጻ": 2839,
      "##ኸ": 2840,
      "##ግ": 2841,
      "##ቡ": 2842,
      "##ፋ": 2843,
      "##ሕ": 2844,
      "##ቶ": 2845,
      "##ቴ": 2846,
      "##ሐ": 2847,
      "##ማ": 2848,
      "##ሙ": 2849,
      "##g": 2850,
      "##ክ": 2851,
      "##ሃ": 2852,
      "##ዋ": 2853,
      "##ጨ": 2854,
      "##ፅ": 2855,
      "##ካ": 2856,
      "##ሄ": 2857,
      "##ኛ": 2858,
      "##ወ": 2859,
      "##ጕ": 2860,
      "##ጓ": 2861,
      "##ዘ": 2862,
      "##ሱ": 2863,
      "##ጧ": 2864,
      "##ቆ": 2865,
      "##ሲ": 2866,
      "##ሻ": 2867,
      "##ቱ": 2868,
      "##ጩ": 2869,
      "##ኋ": 2870,
      "##h": 2871,
      "##s": 2872,
      "##p": 2873,
      "##ቢ": 2874,
      "##የ": 2875,
      "##ፍ": 2876,
      "##ቲ": 2877,
      "##2": 2878,
      "##3": 2879,
      "##ፃ": 2880,
      "##ፖ": 2881,
      "##ሑ": 2882,
      "##ሁ": 2883,
      "##።": 2884,
      "##»": 2885,
      "##ኽ": 2886,
      "##ሩ": 2887,
      "##እ": 2888,
      "##ሸ": 2889,
      "##b": 2890,
      "##d": 2891,
      "##ሶ": 2892,
      "##ዬ": 2893,
      "##ዴ": 2894,
      "##ፓ": 2895,
      "##ቻ": 2896,
      "##ሜ": 2897,
      "##ሽ": 2898,
      "##ኖ": 2899,
      "##ጤ": 2900,
      "##ኒ": 2901,
      "##ቨ": 2902,
      "##َ": 2903,
      "##ذ": 2904,
      "##ٰ": 2905,
      "##ل": 2906,
      "##ِ": 2907,
      "##ك": 2908,
      "##ጋ": 2909,
      "##ቹ": 2910,
      "##a": 2911,
      "##u": 2912,
      "##V": 2913,
      "##E": 2914,
      "##v": 2915,
      "##8": 2916,
      "##o": 2917,
      "##ሌ": 2918,
      "##_": 2919,
      "##5": 2920,
      "##9": 2921,
      "##ሓ": 2922,
      "##ኩ": 2923,
      "##ኘ": 2924,
      "##ዔ": 2925,
      "##ዖ": 2926,
      "##6": 2927,
      "##ዪ": 2928,
      "##ጃ": 2929,
      "##ሣ": 2930,
      "##ፌ": 2931,
      "##ቪ": 2932,
      "##ሥ": 2933,
      "##ኔ": 2934,
      "##ቦ": 2935,
      "##ጊ": 2936,
      "##ጺ": 2937,
      "##ጅ": 2938,
      "##ፎ": 2939,
      "##ጢ": 2940,
      "##ጌ": 2941,
      "##k": 2942,
      "##S": 2943,
      "##ኦ": 2944,
      "##ፒ": 2945,
      "##ጁ": 2946,
      "##ጆ": 2947,
      "##ፏ": 2948,
      "##ቼ": 2949,
      "##ፉ": 2950,
      "##ዮ": 2951,
      "##ዞ": 2952,
      "##ጵ": 2953,
      "##4": 2954,
      "##ኪ": 2955,
      "##ሞ": 2956,
      "##ሹ": 2957,
      "##ፊ": 2958,
      "##ፀ": 2959,
      "##ዩ": 2960,
      "##ኹ": 2961,
      "##ሊ": 2962,
      "##A": 2963,
      "##H": 2964,
      "##ኙ": 2965,
      "##ቋ": 2966,
      "##ሠ": 2967,
      "##ቈ": 2968,
      "##ኳ": 2969,
      "##ሮ": 2970,
      "##ዕ": 2971,
      "##ኬ": 2972,
      "##0": 2973,
      "##ጾ": 2974,
      "##P": 2975,
      "##R": 2976,
      "##ቺ": 2977,
      "##ሴ": 2978,
      "##ዛ": 2979,
      "##j": 2980,
      "##ጎ": 2981,
      "##ኢ": 2982,
      "##ሷ": 2983,
      "##G": 2984,
      "##ፕ": 2985,
      "##ቾ": 2986,
      "##ኵ": 2987,
      "##O": 2988,
      "##C": 2989,
      "##B": 2990,
      "##ጐ": 2991,
      "##ኅ": 2992,
      "##፥": 2993,
      "##፯": 2994,
      "##-": 2995,
      "##፲": 2996,
      "##ሺ": 2997,
      "##ዌ": 2998,
      "##ሾ": 2999,
      "##ዙ": 3000,
      "##ኃ": 3001,
      "##ዚ": 3002,
      "##ኗ": 3003,
      "##ዐ": 3004,
      "##ቂ": 3005,
      "##ዜ": 3006,
      "##ሏ": 3007,
      "##ሆ": 3008,
      "##ቿ": 3009,
      "##ቄ": 3010,
      "##ቛ": 3011,
      "##ሯ": 3012,
      "##ኡ": 3013,
      "##፬": 3014,
      "##፻": 3015,
      "##፴": 3016,
      "##ሬ": 3017,
      "##፣": 3018,
      "##z": 3019,
      "##w": 3020,
      "##ኼ": 3021,
      "##7": 3022,
      "##፶": 3023,
      "##፤": 3024,
      "##K": 3025,
      "##ጪ": 3026,
      "##፮": 3027,
      "##F": 3028,
      "##ዢ": 3029,
      "##ኜ": 3030,
      "##ጽ": 3031,
      "##.": 3032,
      "##ጂ": 3033,
      "##ቭ": 3034,
      "##ጳ": 3035,
      "##:": 3036,
      "##፳": 3037,
      "##፫": 3038,
      "##I": 3039,
      "##N": 3040,
      "##ሂ": 3041,
      "##ዥ": 3042,
      "##ሖ": 3043,
      "##ቬ": 3044,
      "##ቖ": 3045,
      "##W": 3046,
      "##፰": 3047,
      "##÷": 3048,
      "##፱": 3049,
      "##J": 3050,
      "##U": 3051,
      "##ጄ": 3052,
      "##ሔ": 3053,
      "##፪": 3054,
      "##[": 3055,
      "##)": 3056,
      "##(": 3057,
      "##ኞ": 3058,
      "##ዟ": 3059,
      "##x": 3060,
      "##ዣ": 3061,
      "##ዷ": 3062,
      "##ኾ": 3063,
      "##!": 3064,
      "##›": 3065,
      "##ዀ": 3066,
      "##q": 3067,
      "##፩": 3068,
      "##ጰ": 3069,
      "##ሼ": 3070,
      "##D": 3071,
      "##ፆ": 3072,
      "##ፔ": 3073,
      "##ቫ": 3074,
      "##ፑ": 3075,
      "##ሟ": 3076,
      "##ጿ": 3077,
      "##Q": 3078,
      "##ዃ": 3079,
      "##ٕ": 3080,
      "##ه": 3081,
      "##ጹ": 3082,
      "##ኰ": 3083,
      "##፭": 3084,
      "##ኺ": 3085,
      "##ፁ": 3086,
      "##T": 3087,
      "##X": 3088,
      "##Y": 3089,
      "##፵": 3090,
      "##ሒ": 3091,
      "##ቧ": 3092,
      "##ኚ": 3093,
      "##’": 3094,
      "##«": 3095,
      "##和": 3096,
      "##狗": 3097,
      "##ቑ": 3098,
      "##̀": 3099,
      "##ሇ": 3100,
      "##ኻ": 3101,
      "##̇": 3102,
      "##“": 3103,
      "##፷": 3104,
      "##ث": 3105,
      "##ّ": 3106,
      "##م": 3107,
      "##ر": 3108,
      "##ا": 3109,
      "##ت": 3110,
      "##ኁ": 3111,
      "##/": 3112,
      "##፺": 3113,
      "##̈": 3114,
      "##ሤ": 3115,
      "##ቓ": 3116,
      "##ַ": 3117,
      "##ע": 3118,
      "##ֲ": 3119,
      "##ק": 3120,
      "##ֹ": 3121,
      "##ב": 3122,
      "##́": 3123,
      "##…": 3124,
      "##ዠ": 3125,
      "##ኀ": 3126,
      "##ኟ": 3127,
      "##ዦ": 3128,
      "##ዑ": 3129,
      "##ፐ": 3130,
      "##”": 3131,
      "##і": 3132,
      "##е": 3133,
      "##ጇ": 3134,
      "##ጝ": 3135,
      "##ሢ": 3136,
      "##፡": 3137,
      "##>": 3138,
      "##ኲ": 3139,
      "##]": 3140,
      "##Ⱶ": 3141,
      "##?": 3142,
      "##\"": 3143,
      "##ሡ": 3144,
      "##ዒ": 3145,
      "##̂": 3146,
      "##̃": 3147,
      "##ጲ": 3148,
      "##ቐ": 3149,
      "##ጮ": 3150,
      "##፟": 3151,
      "##̆": 3152,
      "##ኆ": 3153,
      "##ሦ": 3154,
      "##ዯ": 3155,
      "##т": 3156,
      "##о": 3157,
      "##м": 3158,
      "##ቒ": 3159,
      "##ዏ": 3160,
      "##ቊ": 3161,
      "##👍": 3162,
      "##ቩ": 3163,
      "##💏": 3164,
      "##^": 3165,
      "##*": 3166,
      "##‹": 3167,
      "##፹": 3168,
      "##！": 3169,
      "##ቍ": 3170,
      "##—": 3171,
      "##ጶ": 3172,
      "##ْ": 3173,
      "##ُ": 3174,
      "##ب": 3175,
      "##ي": 3176,
      "##ن": 3177,
      "##´": 3178,
      "##ኧ": 3179,
      "##‐": 3180,
      "##፦": 3181,
      "##𐌠": 3182,
      "##,": 3183,
      "##ጬ": 3184,
      "##̌": 3185,
      "##ቌ": 3186,
      "##ቘ": 3187,
      "##♥": 3188,
      "##​": 3189,
      "##¬": 3190,
      "##=": 3191,
      "##<": 3192,
      "##&": 3193,
      "##+": 3194,
      "##ፄ": 3195,
      "##̄": 3196,
      "##Z": 3197,
      "##а": 3198,
      "##к": 3199,
      "##🎓": 3200,
      "##ጯ": 3201,
      "##ሗ": 3202,
      "##ጱ": 3203,
      "##ጼ": 3204,
      "##ዤ": 3205,
      "##̊": 3206,
      "##ኂ": 3207,
      "##ዻ": 3208,
      "##ሿ": 3209,
      "##ኍ": 3210,
      "##ዡ": 3211,
      "##д": 3212,
      "##у": 3213,
      "##р": 3214,
      "##ı": 3215,
      "##و": 3216,
      "##ی": 3217,
      "##ፇ": 3218,
      "##–": 3219,
      "##~": 3220,
      "##ጔ": 3221,
      "##ሧ": 3222,
      "###": 3223,
      "##፸": 3224,
      "##\u0017": 3225,
      "##̣": 3226,
      "##€": 3227,
      "##г": 3228,
      "##█": 3229,
      "##ﷺ": 3230,
      "##¾": 3231,
      "##�": 3232,
      "##ዅ": 3233,
      "##ң": 3234,
      "##ق": 3235,
      "##ف": 3236,
      "##ٔ": 3237,
      "##د": 3238,
      "##ً": 3239,
      "##ۭ": 3240,
      "##ص": 3241,
      "##ጒ": 3242,
      "##ጏ": 3243,
      "##ኄ": 3244,
      "##י": 3245,
      "##ת": 3246,
      "##芷": 3247,
      "##珊": 3248,
      "##ⶉ": 3249,
      "##@": 3250,
      "##;": 3251,
      "##ዧ": 3252,
      "##ቝ": 3253,
      "##\\": 3254,
      "##%": 3255,
      "##🌹": 3256,
      "##﻿": 3257,
      "##̧": 3258,
      "##": 3259,
      "##$": 3260,
      "##ᤰ": 3261,
      "##✓": 3262,
      "##、": 3263,
      "##‰": 3264,
      "##ض": 3265,
      "##ى": 3266,
      "##😙": 3267,
      "##❤": 3268,
      "##🙋": 3269,
      "##س": 3270,
      "##ᅵ": 3271,
      "##ᄀ": 3272,
      "##ᅳ": 3273,
      "##ᆷ": 3274,
      "##ኊ": 3275,
      "##ع": 3276,
      "##ǝ": 3277,
      "##ፘ": 3278,
      "##⁠": 3279,
      "##ዺ": 3280,
      "##£": 3281,
      "##ฤ": 3282,
      "##ษ": 3283,
      "##ภ": 3284,
      "##า": 3285,
      "##ค": 3286,
      "##ม": 3287,
      "##ⶀ": 3288,
      "##ط": 3289,
      "##غ": 3290,
      "##ኈ": 3291,
      "##ዸ": 3292,
      "##着": 3293,
      "##売": 3294,
      "##り": 3295,
      "##場": 3296,
      "##は": 3297,
      "##と": 3298,
      "##゙": 3299,
      "##こ": 3300,
      "##て": 3301,
      "##す": 3302,
      "##か": 3303,
      "##ָ": 3304,
      "##ο": 3305,
      "##γ": 3306,
      "##ς": 3307,
      "##ء": 3308,
      "##￼": 3309,
      "##→": 3310,
      "##ቯ": 3311,
      "##❌": 3312,
      "##'": 3313,
      "##ة": 3314,
      "##ኌ": 3315,
      "##̓": 3316,
      "##η": 3317,
      "##σ": 3318,
      "##υ": 3319,
      "##͂": 3320,
      "##⛪": 3321,
      "##🇿": 3322,
      "##λ": 3323,
      "##ν": 3324,
      "##ι": 3325,
      "##κ": 3326,
      "##α": 3327,
      "##χ": 3328,
      "##ρ": 3329,
      "##τ": 3330,
      "##ω": 3331,
      "##◅": 3332,
      "##ε": 3333,
      "##﷽": 3334,
      "##̋": 3335,
      "##ኯ": 3336,
      "##ƒ": 3337,
      "##😂": 3338,
      "##ዽ": 3339,
      "##§": 3340,
      "##М": 3341,
      "##В": 3342,
      "##А": 3343,
      "##ß": 3344,
      "##⃣": 3345,
      "##陽": 3346,
      "##†": 3347,
      "##ዼ": 3348,
      "##ᆨ": 3349,
      "##ᄇ": 3350,
      "##ᅧ": 3351,
      "##ᆯ": 3352,
      "##ᄉ": 3353,
      "##•": 3354,
      "##ం": 3355,
      "##ఘ": 3356,
      "##స": 3357,
      "##్": 3358,
      "##థ": 3359,
      "##ా": 3360,
      "##ప": 3361,
      "##న": 3362,
      "##̨": 3363,
      "##ł": 3364,
      "##и": 3365,
      "##б": 3366,
      "##н": 3367,
      "##ц": 3368,
      "##в": 3369,
      "##ы": 3370,
      "##х": 3371,
      "##（": 3372,
      "##ᅥ": 3373,
      "##ᆫ": 3374,
      "##ᄒ": 3375,
      "##ᅩ": 3376,
      "##ᅡ": 3377,
      "##ٍ": 3378,
      "##ֶ": 3379,
      "##ּ": 3380,
      "##ל": 3381,
      "##ג": 3382,
      "##ጴ": 3383,
      "##ح": 3384,
      "##維": 3385,
      "##恩": 3386,
      "##👎": 3387,
      "##🌻": 3388,
      "##🌼": 3389,
      "##ﷻ": 3390,
      "##ۦ": 3391,
      "##¥": 3392,
      "##خ": 3393,
      "##間": 3394,
      "##華": 3395,
      "##民": 3396,
      "##國": 3397,
      "##}": 3398,
      "##喜": 3399,
      "##發": 3400,
      "##財": 3401,
      "##末": 3402,
      "##💘": 3403,
      "##‘": 3404,
      "##ʾ": 3405,
      "##ə": 3406,
      "##✋": 3407,
      "##😘": 3408,
      "##😍": 3409,
      "##ᅲ": 3410,
      "##ᄌ": 3411,
      "##ᄃ": 3412,
      "##‪": 3413,
      "##‎": 3414,
      "##`": 3415,
      "##­": 3416,
      "##ج": 3417,
      "##☞": 3418,
      "##ю": 3419,
      "##я": 3420,
      "##፨": 3421,
      "##Ⅲ": 3422,
      "##": 3423,
      "##": 3424,
      "##": 3425,
      "##⏰": 3426,
      "##ø": 3427,
      "##½": 3428,
      "##➏": 3429,
      "##ቇ": 3430,
      "##ⶴ": 3431,
      "##ጘ": 3432,
      "##ʼ": 3433,
      "##😢": 3434,
      "##ו": 3435,
      "##ד": 3436,
      "##ם": 3437,
      "##ش": 3438,
      "##С": 3439,
      "##И": 3440,
      "##Л": 3441,
      "##Т": 3442,
      "##О": 3443,
      "##з": 3444,
      "##🇦": 3445,
      "##μ": 3446,
      "##🏼": 3447,
      "##ξ": 3448,
      "##🏿": 3449,
      "##🙏": 3450,
      "##п": 3451,
      "##ј": 3452,
      "##🏽": 3453,
      "##ֵ": 3454,
      "##ִ": 3455,
      "##Ꮃ": 3456,
      "##Ꭹ": 3457,
      "##ח": 3458,
      "##ן": 3459,
      "##💛": 3460,
      "##ኴ": 3461,
      "##ᅦ": 3462,
      "##😚": 3463,
      "##ि": 3464,
      "##न": 3465,
      "##्": 3466,
      "##द": 3467,
      "##ी": 3468,
      "##‼": 3469,
      "##נ": 3470,
      "##ְ": 3471,
      "##ظ": 3472,
      "##音": 3473,
      "##с": 3474,
      "##ש": 3475,
      "##ׁ": 3476,
      "##ч": 3477,
      "##ⷋ": 3478,
      "##л": 3479,
      "##ज": 3480,
      "##ो": 3481,
      "##र": 3482,
      "##🌲": 3483,
      "##√": 3484,
      "##ጞ": 3485,
      "##平": 3486,
      "##奈": 3487,
      "##緒": 3488,
      "##ز": 3489,
      "##۟": 3490,
      "##贺": 3491,
      "##̔": 3492,
      "##ш": 3493,
      "##😀": 3494,
      "##θ": 3495,
      "##·": 3496,
      "##Р": 3497,
      "##З": 3498,
      "##❎": 3499,
      "##✍": 3500,
      "##ޡ": 3501,
      "##˝": 3502,
      "##": 3503,
      "##": 3504,
      "##{": 3505,
      "##þ": 3506,
      "##ጛ": 3507,
      "##😣": 3508,
      "##ร": 3509,
      "##ะ": 3510,
      "##ช": 3511,
      "##ท": 3512,
      "##น": 3513,
      "##แ": 3514,
      "##ก": 3515,
      "##่": 3516,
      "##ณ": 3517,
      "##บ": 3518,
      "##ุ": 3519,
      "##ล": 3520,
      "##ต": 3521,
      "##ง": 3522,
      "##ๆ": 3523,
      "##白": 3524,
      "##🤗": 3525,
      "##💡": 3526,
      "##̛": 3527,
      "##ツ": 3528,
      "##ီ": 3529,
      "##ר": 3530,
      "##": 3531,
      "##¢": 3532,
      "##😲": 3533,
      "##ั": 3534,
      "##ไ": 3535,
      "##เ": 3536,
      "##ป": 3537,
      "##็": 3538,
      "##Σ": 3539,
      "##": 3540,
      "##‑": 3541,
      "##行": 3542,
      "##🌙": 3543,
      "##👈": 3544,
      "##ʷ": 3545,
      "##ⶩ": 3546,
      "##": 3547,
      "##": 3548,
      "##": 3549,
      "##": 3550,
      "##": 3551,
      "##ᄂ": 3552,
      "##ᄋ": 3553,
      "##な": 3554,
      "##の": 3555,
      "##ト": 3556,
      "##ロ": 3557,
      "##ʁ": 3558,
      "##ɑ": 3559,
      "##ુ": 3560,
      "##પ": 3561,
      "##્": 3562,
      "##ર": 3563,
      "##ભ": 3564,
      "##ા": 3565,
      "##ત": 3566,
      "##¹": 3567,
      "##Ð": 3568,
      "##ቚ": 3569,
      "##色": 3570,
      "##的": 3571,
      "##轉": 3572,
      "##向": 3573,
      "##ܘ": 3574,
      "##ܢ": 3575,
      "##ܓ": 3576,
      "##ܠ": 3577,
      "##ܝ": 3578,
      "##ำ": 3579,
      "##พ": 3580,
      "##ิ": 3581,
      "##์": 3582,
      "##ห": 3583,
      "##ว": 3584,
      "##ย": 3585,
      "##ธ": 3586,
      "##ศ": 3587,
      "##ส": 3588,
      "##ա": 3589,
      "##յ": 3590,
      "##ե": 3591,
      "##ր": 3592,
      "##ն": 3593,
      "##ٌ": 3594,
      "##ዂ": 3595,
      "##": 3596,
      "##፼": 3597,
      "##⬇": 3598,
      "##★": 3599,
      "##ቔ": 3600,
      "##）": 3601,
      "##ט": 3602,
      "##ٓ": 3603,
      "##ъ": 3604,
      "##ץ": 3605,
      "##×": 3606,
      "##−": 3607,
      "##ה": 3608,
      "##Æ": 3609,
      "##✆": 3610,
      "##➊": 3611,
      "##∞": 3612,
      "##ा": 3613,
      "##ष": 3614,
      "##💯": 3615,
      "##़": 3616,
      "##े": 3617,
      "##स": 3618,
      "##φ": 3619,
      "##¿": 3620,
      "##æ": 3621,
      "##针": 3622,
      "##菇": 3623,
      "##怎": 3624,
      "##么": 3625,
      "##说": 3626,
      "##👑": 3627,
      "##度": 3628,
      "##ʽ": 3629,
      "##δ": 3630,
      "##国": 3631,
      "##": 3632,
      "##帝": 3633,
      "##ึ": 3634,
      "##๊": 3635,
      "##œ": 3636,
      "##ⶭ": 3637,
      "##٤": 3638,
      "##字": 3639,
      "##別": 3640,
      "##動": 3641,
      "##隊": 3642,
      "##҆": 3643,
      "##🕎": 3644,
      "##፧": 3645,
      "##Œ": 3646,
      "##¡": 3647,
      "##ۡ": 3648,
      "##ـ": 3649,
      "##®": 3650,
      "##👇": 3651,
      "##💖": 3652,
      "##💚": 3653,
      "##ʀ": 3654,
      "##ᴇ": 3655,
      "##ᴅ": 3656,
      "##ᴏ": 3657,
      "##ᴍ": 3658,
      "##ह": 3659,
      "##ल": 3660,
      "##🤣": 3661,
      "##🔥": 3662,
      "##ด": 3663,
      "##🚦": 3664,
      "##🚘": 3665,
      "##㝕": 3666,
      "##π": 3667,
      "##ֱ": 3668,
      "##➍": 3669,
      "##Ø": 3670,
      "##気": 3671,
      "##う": 3672,
      "##ᅮ": 3673,
      "##细": 3674,
      "##明": 3675,
      "##ፚ": 3676,
      "##🔫": 3677,
      "##😉": 3678,
      "##也": 3679,
      "##ð": 3680,
      "##\u0004": 3681,
      "##。": 3682,
      "##😎": 3683,
      "##ⶈ": 3684,
      "##": 3685,
      "##‚": 3686,
      "##̎": 3687,
      "##Φ": 3688,
      "##¨": 3689,
      "##ʿ": 3690,
      "##ᆼ": 3691,
      "##ᄎ": 3692,
      "##ո": 3693,
      "##կ": 3694,
      "##տ": 3695,
      "##մ": 3696,
      "##բ": 3697,
      "##💝": 3698,
      "##🔞": 3699,
      "##य": 3700,
      "##ू": 3701,
      "##ϙ": 3702,
      "##ь": 3703,
      "##容": 3704,
      "##雪": 3705,
      "##村": 3706,
      "##ѕ": 3707,
      "##点": 3708,
      "##了": 3709,
      "##ฎ": 3710,
      "##ี": 3711,
      "##✔": 3712,
      "##ۥ": 3713,
      "##♠": 3714,
      "##♣": 3715,
      "##💪": 3716,
      "##👌": 3717,
      "##👏": 3718,
      "##😆": 3719,
      "##ɔ": 3720,
      "##ж": 3721,
      "##ෑ": 3722,
      "##°": 3723,
      "##😜": 3724,
      "##\u0001": 3725,
      "##ခ": 3726,
      "##န": 3727,
      "##်": 3728,
      "##း": 3729,
      "##😁": 3730,
      "##ި": 3731,
      "##מ": 3732,
      "##º": 3733,
      "##珮": 3734,
      "##筠": 3735,
      "##多": 3736,
      "##是": 3737,
      "##親": 3738,
      "##身": 3739,
      "##體": 3740,
      "##驗": 3741,
      "##₪": 3742,
      "##▲": 3743,
      "##ጙ": 3744,
      "##¦": 3745,
      "##": 3746,
      "##उ": 3747,
      "##ड": 3748,
      "##̦": 3749,
      "##ื": 3750,
      "##อ": 3751,
      "##จ": 3752,
      "##ು": 3753,
      "##ಭ": 3754,
      "##ೆ": 3755,
      "##ೂ": 3756,
      "##ೕ": 3757,
      "##ದ": 3758,
      "##ಯ": 3759,
      "##常": 3760,
      "##堅": 3761,
      "##固": 3762,
      "##低": 3763,
      "##噪": 3764,
      "##房": 3765,
      "##": 3766,
      "##・": 3767,
      "##ዹ": 3768,
      "##ᄅ": 3769,
      "##ס": 3770,
      "##פ": 3771,
      "##א": 3772,
      "##ܪ": 3773,
      "##ܡ": 3774,
      "##ܐ": 3775,
      "##🇸": 3776,
      "##ጷ": 3777,
      "##😃": 3778,
      "##💺": 3779,
      "##ᄐ": 3780,
      "##ᅢ": 3781,
      "##џ": 3782,
      "##ª": 3783,
      "##ɒ": 3784,
      "##₡": 3785,
      "##া": 3786,
      "##ং": 3787,
      "##ল": 3788,
      "##দ": 3789,
      "##ে": 3790,
      "##শ": 3791,
      "##💕": 3792,
      "##": 3793,
      "##【": 3794,
      "##？": 3795,
      "##ⅼ": 3796,
      "##️": 3797,
      "##😇": 3798,
      "##萨": 3799,
      "##✅": 3800,
      "##😭": 3801,
      "##人": 3802,
      "##節": 3803,
      "##善": 3804,
      "##ף": 3805,
      "##片": 3806,
      "##ˆ": 3807,
      "##ᅭ": 3808,
      "##β": 3809,
      "##🇷": 3810,
      "##：": 3811,
      "##💔": 3812,
      "##ⶫ": 3813,
      "##″": 3814,
      "##ዾ": 3815,
      "##鳥": 3816,
      "##哉": 3817,
      "##✟": 3818,
      "##上": 3819,
      "##小": 3820,
      "##時": 3821,
      "##玩": 3822,
      "##ז": 3823,
      "##😛": 3824,
      "##፠": 3825,
      "##ዄ": 3826,
      "##🔊": 3827,
      "##": 3828,
      "##🙂": 3829,
      "##ս": 3830,
      "##ዿ": 3831,
      "##צ": 3832,
      "##क": 3833,
      "##त": 3834,
      "##श": 3835,
      "##👪": 3836,
      "##🙌": 3837,
      "##委": 3838,
      "##會": 3839,
      "##้": 3840,
      "##ญ": 3841,
      "##ߴ": 3842,
      "##➋": 3843,
      "##": 3844,
      "##̮": 3845,
      "##情": 3846,
      "##ⶨ": 3847,
      "##🇹": 3848,
      "##🇪": 3849,
      "##物": 3850,
      "##ミ": 3851,
      "##👆": 3852,
      "##💗": 3853,
      "##ല": 3854,
      "##യ": 3855,
      "##ാ": 3856,
      "##ള": 3857,
      "##ം": 3858,
      "##„": 3859,
      "##禅": 3860,
      "##ፗ": 3861,
      "##\b": 3862,
      "##ᎂ": 3863,
      "##迎": 3864,
      "##¸": 3865,
      "##魚": 3866,
      "##ጟ": 3867,
      "##ٱ": 3868,
      "##🎉": 3869,
      "##🍾": 3870,
      "##🎁": 3871,
      "##🎂": 3872,
      "##𝗲": 3873,
      "##𝘁": 3874,
      "##𝗸": 3875,
      "##𝗺": 3876,
      "##𝗮": 3877,
      "##ф": 3878,
      "##🏢": 3879,
      "##µ": 3880,
      "##ර": 3881,
      "##ම": 3882,
      "##්": 3883,
      "##ֻ": 3884,
      "##月": 3885,
      "##ᎀ": 3886,
      "##州": 3887,
      "##門": 3888,
      "##̏": 3889,
      "##提": 3890,
      "##格": 3891,
      "##里": 3892,
      "##尼": 3893,
      "##亚": 3894,
      "##语": 3895,
      "##姉": 3896,
      "##妹": 3897,
      "##": 3898,
      "##ﻯ": 3899,
      "##": 3900,
      "##˜": 3901,
      "##❖": 3902,
      "##🍞": 3903,
      "##🍉": 3904,
      "##ﻤ": 3905,
      "##ﻦ": 3906,
      "##ⶽ": 3907,
      "##": 3908,
      "##ˮ": 3909,
      "##ћ": 3910,
      "##👉": 3911,
      "##": 3912,
      "##ጚ": 3913,
      "##ं": 3914,
      "##‏": 3915,
      "##ᅪ": 3916,
      "##ᄁ": 3917,
      "##☆": 3918,
      "##🍻": 3919,
      "##پ": 3920,
      "##ہ": 3921,
      "##": 3922,
      "##┇": 3923,
      "##🎋": 3924,
      "##": 3925,
      "##њ": 3926,
      "##Ω": 3927,
      "##🅾": 3928,
      "##局": 3929,
      "##汉": 3930,
      "##ა": 3931,
      "##ქ": 3932,
      "##რ": 3933,
      "##თ": 3934,
      "##ვ": 3935,
      "##ე": 3936,
      "##ლ": 3937,
      "##ო": 3938,
      "##ฉ": 3939,
      "##ך": 3940,
      "##😔": 3941,
      "##І": 3942,
      "##➕": 3943,
      "##🏾": 3944,
      "##ડ": 3945,
      "##બ": 3946,
      "##ય": 3947,
      "##ู": 3948,
      "##ﻟ": 3949,
      "##ﻌ": 3950,
      "##ﻔ": 3951,
      "##ﻮ": 3952,
      "##ڈ": 3953,
      "##➤": 3954,
      "##扉": 3955,
      "##🇾": 3956,
      "##イ": 3957,
      "##ー": 3958,
      "##シ": 3959,
      "##ʹ": 3960,
      "##ు": 3961,
      "##భ": 3962,
      "##ో": 3963,
      "##ద": 3964,
      "##య": 3965,
      "##Ə": 3966,
      "##қ": 3967,
      "##◊": 3968,
      "##च": 3969,
      "##ɣ": 3970,
      "##ब": 3971,
      "##ʻ": 3972,
      "##щ": 3973,
      "##逸": 3974,
      "##仙": 3975,
      "##🎼": 3976,
      "##🎤": 3977,
      "##🎶": 3978,
      "##ᆭ": 3979,
      "##ᆸ": 3980,
      "##ׂ": 3981,
      "##𝗩": 3982,
      "##К": 3983,
      "##♨": 3984,
      "##壽": 3985,
      "##命": 3986,
      "##重": 3987,
      "##型": 3988,
      "##電": 3989,
      "##機": 3990,
      "##零": 3991,
      "##件": 3992,
      "##組": 3993,
      "##🔴": 3994,
      "##☚": 3995,
      "##฿": 3996,
      "##̱": 3997,
      "##ɪ": 3998,
      "##🏻": 3999,
      "##║": 4000,
      "##💒": 4001,
      "##塚": 4002,
      "##዗": 4003,
      "##有": 4004,
      "##好": 4005,
      "##餐": 4006,
      "##厅": 4007,
      "##試": 4008,
      "##不": 4009,
      "##用": 4010,
      "##錢": 4011,
      "##ස": 4012,
      "##ැ": 4013,
      "##ක": 4014,
      "##ි": 4015,
      "##ල": 4016,
      "##🇮": 4017,
      "##𝗿": 4018,
      "##👂": 4019,
      "##■": 4020,
      "##כ": 4021,
      "##": 4022,
      "##ា": 4023,
      "##ស": 4024,
      "##៊": 4025,
      "##ី": 4026,
      "##": 4027,
      "##♪": 4028,
      "##♫": 4029,
      "##璃": 4030,
      "##括": 4031,
      "##駕": 4032,
      "##駛": 4033,
      "##靈": 4034,
      "##活": 4035,
      "##豪": 4036,
      "##坦": 4037,
      "##克": 4038,
      "##事": 4039,
      "##實": 4040,
      "##🇬": 4041,
      "##禹": 4042,
      "##ۇ": 4043,
      "##چ": 4044,
      "##ە": 4045,
      "##©": 4046,
      "##": 4047,
      "##🤔": 4048,
      "##ﻠ": 4049,
      "##ﻪ": 4050,
      "##": 4051,
      "##ត": 4052,
      "##̕": 4053,
      "##泽": 4054,
      "##东": 4055,
      "##म": 4056,
      "##‍": 4057,
      "##ී": 4058,
      "##ᅬ": 4059,
      "##ᄆ": 4060,
      "##そ": 4061,
      "##💑": 4062,
      "##😏": 4063,
      "##֑": 4064,
      "##ი": 4065,
      "##ს": 4066,
      "##ද": 4067,
      "##න": 4068,
      "##⇐": 4069,
      "##ﺎ": 4070,
      "##‛": 4071,
      "##᎗": 4072,
      "##発": 4073,
      "##を": 4074,
      "##ۢ": 4075,
      "##У": 4076,
      "##𐌌": 4077,
      "##ਰ": 4078,
      "##ੋ": 4079,
      "##‬": 4080,
      "##愛": 4081,
      "##壹": 4082,
      "##玖": 4083,
      "##捌": 4084,
      "##柒": 4085,
      "##签": 4086,
      "##ھ": 4087,
      "##ⶇ": 4088,
      "##∙": 4089,
      "##😴": 4090,
      "##七": 4091,
      "##条": 4092,
      "##憲": 4093,
      "##法": 4094,
      "##发": 4095,
      "##😊": 4096,
      "##♚": 4097,
      "##►": 4098,
      "##᎓": 4099,
      "##ᴛ": 4100,
      "##💎": 4101,
      "##ڌ": 4102,
      "##જ": 4103,
      "##ી": 4104,
      "##兴": 4105,
      "##趣": 4106,
      "##♦": 4107,
      "##ᅴ": 4108,
      "##": 4109,
      "##ॉ": 4110,
      "##尊": 4111,
      "##郑": 4112,
      "##ⷛ": 4113,
      "##Ꮒ": 4114,
      "##Ᏼ": 4115,
      "##Ꮻ": 4116,
      "##Ꮿ": 4117,
      "##Ϙ": 4118,
      "##𝟬": 4119,
      "##𝟭": 4120,
      "##𝟳": 4121,
      "##ɨ": 4122,
      "##ւ": 4123,
      "##հ": 4124,
      "##ի": 4125,
      "##┈": 4126,
      "##": 4127,
      "##岡": 4128,
      "##卓": 4129,
      "##լ": 4130,
      "##ⶆ": 4131,
      "##ᄈ": 4132,
      "##ᆹ": 4133,
      "##🕊": 4134,
      "##ោ": 4135,
      "##ន": 4136,
      "##ⶂ": 4137,
      "##弥": 4138,
      "##✦": 4139,
      "##": 4140,
      "##🇫": 4141,
      "##➌": 4142,
      "##↓": 4143,
      "##‫": 4144,
      "##๕": 4145,
      "##๔": 4146,
      "##名": 4147,
      "##ے": 4148,
      "##٢": 4149,
      "##🇳": 4150,
      "##𐌑": 4151,
      "##№": 4152,
      "##ﬀ": 4153,
      "##փ": 4154,
      "##天": 4155,
      "##公": 4156,
      "##🇲": 4157,
      "##ҷ": 4158,
      "##𝗶": 4159,
      "##𝘄": 4160,
      "##𝗼": 4161,
      "##韻": 4162,
      "##芝": 4163,
      "##部": 4164,
      "##關": 4165,
      "##於": 4166,
      "##☈": 4167,
      "##速": 4168,
      "##穩": 4169,
      "##定": 4170,
      "##性": 4171,
      "##📚": 4172,
      "##➎": 4173,
      "##🧒": 4174,
      "##👩": 4175,
      "##ˈ": 4176,
      "##ː": 4177,
      "##田": 4178,
      "##正": 4179,
      "##孝": 4180,
      "##间": 4181,
      "##号": 4182,
      "##码": 4183,
      "##少": 4184,
      "##👐": 4185,
      "##ψ": 4186,
      "##ⶳ": 4187,
      "##󠁴": 4188,
      "##󠁺": 4189,
      "##󠀰": 4190,
      "##󠀷": 4191,
      "##󠁿": 4192,
      "##վ": 4193,
      "##ኇ": 4194,
      "##ે": 4195,
      "##要": 4196,
      "##钱": 4197,
      "##โ": 4198,
      "##າ": 4199,
      "##ວ": 4200,
      "##斎": 4201,
      "##™": 4202,
      "##э": 4203,
      "##都": 4204,
      "##": 4205,
      "##ర": 4206,
      "##😡": 4207,
      "##😠": 4208,
      "##្": 4209,
      "##រ": 4210,
      "##េ": 4211,
      "##ង": 4212,
      "##爲": 4213,
      "##ᴜ": 4214,
      "##ʏ": 4215,
      "##ᴤ": 4216,
      "##": 4217,
      "##": 4218,
      "##": 4219,
      "##ई": 4220,
      "##∗": 4221,
      "##ө": 4222,
      "##🤦": 4223,
      "##": 4224,
      "##💓": 4225,
      "##ቜ": 4226,
      "##🤞": 4227,
      "##Ⅱ": 4228,
      "##快": 4229,
      "##樂": 4230,
      "##👗": 4231,
      "##💋": 4232,
      "##🐘": 4233,
      "##👅": 4234,
      "##ु": 4235,
      "##छ": 4236,
      "##ほ": 4237,
      "##ん": 4238,
      "##精": 4239,
      "##確": 4240,
      "##😝": 4241,
      "##བ": 4242,
      "##ྲ": 4243,
      "##ུ": 4244,
      "##ག": 4245,
      "##☟": 4246,
      "##雅": 4247,
      "##医": 4248,
      "##学": 4249,
      "##院": 4250,
      "##ᅣ": 4251,
      "##ည": 4252,
      "##ဝ": 4253,
      "##တ": 4254,
      "##ૂ": 4255,
      "##֣": 4256,
      "##暁": 4257,
      "##斗": 4258,
      "##涨": 4259,
      "##潮": 4260,
      "##🗽": 4261,
      "##ܗ": 4262,
      "##प": 4263,
      "##់": 4264,
      "##💜": 4265,
      "##🇴": 4266,
      "##海": 4267,
      "##道": 4268,
      "##😳": 4269,
      "##គ": 4270,
      "##☛": 4271,
      "##交": 4272,
      "##🌴": 4273,
      "##大": 4274,
      "##夢": 4275,
      "##🤐": 4276,
      "##🇶": 4277,
      "##ﺃ": 4278,
      "##ﺻ": 4279,
      "##ﺢ": 4280,
      "##一": 4281,
      "##个": 4282,
      "##产": 4283,
      "##品": 4284,
      "##¶": 4285,
      "##🔔": 4286,
      "##し": 4287,
      "##さ": 4288,
      "##夫": 4289,
      "##子": 4290,
      "##―": 4291,
      "##代": 4292,
      "##志": 4293,
      "##下": 4294,
      "##📲": 4295,
      "##≤": 4296,
      "##賽": 4297,
      "##德": 4298,
      "##斯": 4299,
      "##藤": 4300,
      "##慧": 4301,
      "##۞": 4302,
      "##۝": 4303,
      "##ラ": 4304,
      "##え": 4305,
      "##も": 4306,
      "##直": 4307,
      "##播": 4308,
      "##軟": 4309,
      "##閉": 4310,
      "##リ": 4311,
      "##オ": 4312,
      "##ᇂ": 4313,
      "##": 4314,
      "##☩": 4315,
      "##←": 4316,
      "##": 4317,
      "##🙈": 4318,
      "##🤩": 4319,
      "##☺": 4320,
      "##語": 4321,
      "##时": 4322,
      "##😰": 4323,
      "##歌": 4324,
      "##現": 4325,
      "##璠": 4326,
      "##ฐ": 4327,
      "##": 4328,
      "##港": 4329,
      "##ⷅ": 4330,
      "##ﻨ": 4331,
      "##ﺱ": 4332,
      "##奴": 4333,
      "##պ": 4334,
      "##": 4335,
      "##": 4336,
      "##🌺": 4337,
      "##゚": 4338,
      "##橐": 4339,
      "##ⶵ": 4340,
      "##ֳ": 4341,
      "##ɲ": 4342,
      "##仇": 4343,
      "##殺": 4344,
      "##京": 4345,
      "##🔵": 4346,
      "##": 4347,
      "##ข": 4348,
      "##カ": 4349,
      "##ំ": 4350,
      "##🇩": 4351,
      "##❀": 4352,
      "##炜": 4353,
      "##ⶎ": 4354,
      "##⊰": 4355,
      "##✿": 4356,
      "##⊱": 4357,
      "##ﻬ": 4358,
      "##ﻣ": 4359,
      "##ﺮ": 4360,
      "##ﺑ": 4361,
      "##đ": 4362,
      "##မ": 4363,
      "##ာ": 4364,
      "##㙀": 4365,
      "##±": 4366,
      "##ܫ": 4367,
      "##ܥ": 4368,
      "##漢": 4369,
      "##洋": 4370,
      "##羲": 4371,
      "##兄": 4372,
      "##弟": 4373,
      "##Д": 4374,
      "##Е": 4375,
      "##Ь": 4376,
      "##表": 4377,
      "##": 4378,
      "##🦃": 4379,
      "##¼": 4380,
      "##共": 4381,
      "##ⶒ": 4382,
      "##ទ": 4383,
      "##ប": 4384,
      "##💐": 4385,
      "##👀": 4386,
      "##👁": 4387,
      "##費": 4388,
      "##🇨": 4389,
      "##": 4390,
      "##̅": 4391,
      "##些": 4392,
      "##特": 4393,
      "##點": 4394,
      "##క": 4395,
      "##డ": 4396,
      "##❗": 4397,
      "##ⶰ": 4398,
      "##喾": 4399,
      "##船": 4400,
      "##本": 4401,
      "##「": 4402,
      "##≧": 4403,
      "##ै": 4404,
      "##ǃ": 4405,
      "##孤": 4406,
      "##城": 4407,
      "##蝶": 4408,
      "##恋": 4409,
      "##花": 4410,
      "##ﻰ": 4411,
      "##耶": 4412,
      "##应": 4413,
      "##排": 4414,
      "##商": 4415,
      "##店": 4416,
      "##数": 4417,
      "##据": 4418,
      "##\u0000": 4419,
      "##🎷": 4420,
      "##╬": 4421,
      "##ܲ": 4422,
      "##ܵ": 4423,
      "##▌": 4424,
      "##🛰": 4425,
      "##🤘": 4426,
      "##あ": 4427,
      "##る": 4428,
      "##い": 4429,
      "##猫": 4430,
      "##文": 4431,
      "##យ": 4432,
      "##瑰": 4433,
      "##静": 4434,
      "##粉": 4435,
      "##玫": 4436,
      "##": 4437,
      "##ħ": 4438,
      "##ถ": 4439,
      "##ผ": 4440,
      "##津": 4441,
      "##є": 4442,
      "##ڬ": 4443,
      "##⁄": 4444,
      "##🏆": 4445,
      "##ြ": 4446,
      "##ေ": 4447,
      "##ရ": 4448,
      "##ှ": 4449,
      "##င": 4450,
      "##ұ": 4451,
      "##🏰": 4452,
      "##🇼": 4453,
      "##ු": 4454,
      "##භ": 4455,
      "##阜": 4456,
      "##მ": 4457,
      "##ჰ": 4458,
      "##年": 4459,
      "##禁": 4460,
      "##忌": 4461,
      "##৳": 4462,
      "##近": 4463,
      "##警": 4464,
      "##察": 4465,
      "##在": 4466,
      "##哪": 4467,
      "##輪": 4468,
      "##盤": 4469,
      "##式": 4470,
      "##製": 4471,
      "##器": 4472,
      "##習": 4473,
      "##俗": 4474,
      "##": 4475,
      "##": 4476,
      "##": 4477,
      "##℃": 4478,
      "##ア": 4479,
      "##ム": 4480,
      "##ハ": 4481,
      "##郎": 4482,
      "##ං": 4483,
      "##හ": 4484,
      "##學": 4485,
      "##而": 4486,
      "##₼": 4487,
      "##八": 4488,
      "##日": 4489,
      "##示": 4490,
      "##威": 4491,
      "##免": 4492,
      "##載": 4493,
      "##媒": 4494,
      "##與": 4495,
      "##影": 4496,
      "##ɴ": 4497,
      "##": 4498,
      "##ⷉ": 4499,
      "##ғ": 4500,
      "##ә": 4501,
      "##ጜ": 4502,
      "##ˋ": 4503,
      "##": 4504,
      "##⚽": 4505,
      "##矢": 4506,
      "##": 4507,
      "##🧐": 4508,
      "##ᴀ": 4509,
      "##\u000e": 4510,
      "##Ƌ": 4511,
      "##ె": 4512,
      "##ల": 4513,
      "##గ": 4514,
      "##∽": 4515,
      "##😱": 4516,
      "##ވ": 4517,
      "##ެ": 4518,
      "##ހ": 4519,
      "##◦": 4520,
      "##◎": 4521,
      "##●": 4522,
      "##◉": 4523,
      "##🎵": 4524,
      "##🌟": 4525,
      "##👧": 4526,
      "##ᄑ": 4527,
      "##‡": 4528,
      "##能": 4529,
      "##带": 4530,
      "##我": 4531,
      "##去": 4532,
      "##机": 4533,
      "##场": 4534,
      "##吗": 4535,
      "##": 4536,
      "##古": 4537,
      "##屋": 4538,
      "##市": 4539,
      "##۠": 4540,
      "##ट": 4541,
      "##🏔": 4542,
      "##牺": 4543,
      "##👮": 4544,
      "##⁮": 4545,
      "##▼": 4546,
      "##ᅯ": 4547,
      "##ঙ": 4548,
      "##ক": 4549,
      "##ী": 4550,
      "##Χ": 4551,
      "##Ι": 4552,
      "##尾": 4553,
      "##芭": 4554,
      "##蕉": 4555,
      "##💻": 4556,
      "##⛄": 4557,
      "##գ": 4558,
      "##": 4559,
      "##➖": 4560,
      "##😅": 4561,
      "##司": 4562,
      "##產": 4563,
      "##廣": 4564,
      "##泛": 4565,
      "##研": 4566,
      "##究": 4567,
      "##以": 4568,
      "##及": 4569,
      "##成": 4570,
      "##較": 4571,
      "##高": 4572,
      "##浜": 4573,
      "##ʺ": 4574,
      "##ン": 4575,
      "##ヒ": 4576,
      "##ス": 4577,
      "##豹": 4578,
      "##㜎": 4579,
      "##▶": 4580,
      "##უ": 4581,
      "##ग": 4582,
      "##Ф": 4583,
      "##ッ": 4584,
      "##ク": 4585,
      "##マ": 4586,
      "##⁯": 4587,
      "##英": 4588,
      "##砍": 4589,
      "##柴": 4590,
      "##ƣ": 4591,
      "##๖": 4592,
      "##व": 4593,
      "##コ": 4594,
      "##ホ": 4595,
      "##ル": 4596,
      "##Ц": 4597,
      "##ɢ": 4598,
      "##Δ": 4599,
      "##🇯": 4600,
      "##ケ": 4601,
      "##モ": 4602,
      "##ާ": 4603,
      "##ލ": 4604,
      "##ⷃ": 4605,
      "##言": 4606,
      "##ま": 4607,
      "##✞": 4608,
      "##𐩢": 4609,
      "##𐩨": 4610,
      "##ਈ": 4611,
      "##幌": 4612,
      "##✊": 4613,
      "##ⷈ": 4614,
      "##ղ": 4615,
      "##ը": 4616,
      "##‭": 4617,
      "##ᴊ": 4618,
      "##信": 4619,
      "##夕": 4620,
      "##拜": 4621,
      "##ϩ": 4622,
      "##": 4623,
      "##ฯ": 4624,
      "##ͅ": 4625,
      "##Ŧ": 4626,
      "##Ɔ": 4627,
      "##̲": 4628,
      "##ம": 4629,
      "##ி": 4630,
      "##ழ": 4631,
      "##்": 4632,
      "##": 4633,
      "##崎": 4634,
      "##💫": 4635,
      "##₺": 4636,
      "##П": 4637,
      "##ট": 4638,
      "##্": 4639,
      "##গ": 4640,
      "##র": 4641,
      "##ম": 4642,
      "##童": 4643,
      "##几": 4644,
      "##🚌": 4645,
      "##బ": 4646,
      "##ⷝ": 4647,
      "##፞": 4648,
      "##Ǝ": 4649,
      "##何": 4650,
      "##😋": 4651,
      "##₩": 4652,
      "##\u0014": 4653,
      "##🇱": 4654,
      "##": 4655,
      "##⭕": 4656,
      "##農": 4657,
      "##飾": 4658,
      "##钩": 4659,
      "##һ": 4660,
      "##ک": 4661,
      "##ᆪ": 4662,
      "##𝟰": 4663,
      "##🍽": 4664,
      "##韓": 4665,
      "##္": 4666,
      "##‌": 4667,
      "##က": 4668,
      "##ု": 4669,
      "##ိ": 4670,
      "##့": 4671,
      "##ⵏ": 4672,
      "##ⴼ": 4673,
      "##ⴰ": 4674,
      "##灣": 4675,
      "##ፙ": 4676,
      "##🍆": 4677,
      "##ใ": 4678,
      "##束": 4679,
      "##≥": 4680,
      "##😗": 4681,
      "##现": 4682,
      "##女": 4683,
      "##🤭": 4684,
      "##山": 4685,
      "##来": 4686,
      "##ζ": 4687,
      "##﻾": 4688,
      "##👫": 4689,
      "##ပ": 4690,
      "##ဒ": 4691,
      "##ҳ": 4692,
      "##💦": 4693,
      "##": 4694,
      "##馳": 4695,
      "##總": 4696,
      "##醒": 4697,
      "##汽": 4698,
      "##車": 4699,
      "##質": 4700,
      "##感": 4701,
      "##受": 4702,
      "##聯": 4703,
      "##ण": 4704,
      "##ម": 4705,
      "##ព": 4706,
      "##ុ": 4707,
      "##ជ": 4708,
      "##非": 4709,
      "##均": 4710,
      "##勻": 4711,
      "##腳": 4712,
      "##蹬": 4713,
      "##傳": 4714,
      "##士": 4715,
      "##₱": 4716,
      "##Ғ": 4717,
      "##💟": 4718,
      "##💞": 4719,
      "##戸": 4720,
      "##康": 4721,
      "##史": 4722,
      "##石": 4723,
      "##讓": 4724,
      "##仲": 4725,
      "##彥": 4726,
      "##ɾ": 4727,
      "##ⶪ": 4728,
      "##塞": 4729,
      "##俄": 4730,
      "##比": 4731,
      "##圣": 4732,
      "##经": 4733,
      "##南": 4734,
      "##切": 4735,
      "##叭": 4736,
      "##微": 4737,
      "##新": 4738,
      "##聞": 4739,
      "##沂": 4740,
      "##ᤱ": 4741,
      "##つ": 4742,
      "##や": 4743,
      "##🇭": 4744,
      "##ょ": 4745,
      "##ਚ": 4746,
      "##ਾ": 4747,
      "##ਨ": 4748,
      "##🇺": 4749,
      "##島": 4750,
      "##ා": 4751,
      "##ව": 4752,
      "##辛": 4753,
      "##֔": 4754,
      "##💀": 4755,
      "##庆": 4756,
      "##ᴰ": 4757,
      "##᎐": 4758,
      "##љ": 4759,
      "##․": 4760,
      "##♩": 4761,
      "##ᎃ": 4762,
      "##": 4763,
      "##": 4764,
      "##": 4765,
      "##☠": 4766,
      "##☢": 4767,
      "##馬": 4768,
      "##遷": 4769,
      "##ฝ": 4770,
      "##ﺄ": 4771,
      "##ﺟ": 4772,
      "##ﻩ": 4773,
      "##ɛ": 4774,
      "##阪": 4775,
      "##録": 4776,
      "##☕": 4777,
      "##🍰": 4778,
      "##🍹": 4779,
      "##🍮": 4780,
      "##卡": 4781,
      "##👋": 4782,
      "##レ": 4783,
      "##ソ": 4784,
      "##𝗻": 4785,
      "##气": 4786,
      "##样": 4787,
      "##➧": 4788,
      "##夜": 4789,
      "##🦑": 4790,
      "##🐢": 4791,
      "##树": 4792,
      "##维": 4793,
      "##優": 4794,
      "##̉": 4795,
      "##ʃ": 4796,
      "##📫": 4797,
      "##☀": 4798,
      "##⚘": 4799,
      "##ກ": 4800,
      "##ົ": 4801,
      "##່": 4802,
      "##🐍": 4803,
      "##🖐": 4804,
      "##地": 4805,
      "##方": 4806,
      "##ᅨ": 4807,
      "##嘉": 4808,
      "##臨": 4809,
      "##త": 4810,
      "እን": 4811,
      "፡፡": 4812,
      "##ቸው": 4813,
      "የሚ": 4814,
      "ነው": 4815,
      "##ነት": 4816,
      "##ዎች": 4817,
      "የተ": 4818,
      "እና": 4819,
      "እንደ": 4820,
      "ላይ": 4821,
      "##ለው": 4822,
      "##ችን": 4823,
      "አን": 4824,
      "##ትዮ": 4825,
      "##በት": 4826,
      "በመ": 4827,
      "##ጵያ": 4828,
      "##ትዮጵያ": 4829,
      "##ገር": 4830,
      "##ስት": 4831,
      "የአ": 4832,
      "አስ": 4833,
      "##ዚህ": 4834,
      "##ውን": 4835,
      "የመ": 4836,
      "እንዲ": 4837,
      "##በር": 4838,
      "##ሆን": 4839,
      "መን": 4840,
      "በአ": 4841,
      "አይ": 4842,
      "##ለም": 4843,
      "##ዋል": 4844,
      "##ቶች": 4845,
      "በተ": 4846,
      "ወደ": 4847,
      "##ለት": 4848,
      "##ስጥ": 4849,
      "ግን": 4850,
      "ለመ": 4851,
      "ይህ": 4852,
      "##ንድ": 4853,
      "ውስጥ": 4854,
      "##ደር": 4855,
      "##ደረ": 4856,
      "##ሆነ": 4857,
      "##ሆኑ": 4858,
      "ለማ": 4859,
      "##ንም": 4860,
      "##ሪያ": 4861,
      "ስለ": 4862,
      "እየ": 4863,
      "##ያን": 4864,
      "20": 4865,
      "##ኢትዮጵያ": 4866,
      "##ትን": 4867,
      "በማ": 4868,
      "##ተኛ": 4869,
      "##ላይ": 4870,
      "ጋር": 4871,
      "##ቸውን": 4872,
      "የሚያ": 4873,
      "##በረ": 4874,
      "##ርስ": 4875,
      "አለ": 4876,
      "ጊዜ": 4877,
      "አንድ": 4878,
      "##ርት": 4879,
      "የማ": 4880,
      "##ረት": 4881,
      "የም": 4882,
      "##ራት": 4883,
      "##ድር": 4884,
      "እስ": 4885,
      "ነበር": 4886,
      "መንግ": 4887,
      "አል": 4888,
      "##ስተ": 4889,
      "##ዝብ": 4890,
      "##ላል": 4891,
      "ከተ": 4892,
      "ኢትዮጵያ": 4893,
      "##ዲስ": 4894,
      "##ድረ": 4895,
      "ወይ": 4896,
      "ነገር": 4897,
      "##ገባ": 4898,
      "ባለ": 4899,
      "##ሁን": 4900,
      "በሚ": 4901,
      "ቤት": 4902,
      "እንዳ": 4903,
      "##..": 4904,
      "ሁሉ": 4905,
      "##መን": 4906,
      "##ሮች": 4907,
      "ጉዳ": 4908,
      "##ናል": 4909,
      "መል": 4910,
      "##ረጃ": 4911,
      "201": 4912,
      "##ሰብ": 4913,
      "ምን": 4914,
      "##ሎች": 4915,
      "እንደሚ": 4916,
      "##ንግ": 4917,
      "የእ": 4918,
      "##ቱን": 4919,
      "##ሪካ": 4920,
      "ምክ": 4921,
      "##ምን": 4922,
      "##ራዊ": 4923,
      "ደግ": 4924,
      "አባ": 4925,
      "በእ": 4926,
      "##ትና": 4927,
      "##መለ": 4928,
      "አገ": 4929,
      "ዓመ": 4930,
      "ያለ": 4931,
      "##ብር": 4932,
      "የኢትዮጵያ": 4933,
      "ሰው": 4934,
      "ደግሞ": 4935,
      "ድር": 4936,
      "መስ": 4937,
      "##ንያ": 4938,
      "##ቅር": 4939,
      "##ላቸው": 4940,
      "አስተ": 4941,
      "ሳይ": 4942,
      "##ታት": 4943,
      "የነ": 4944,
      "##ችሁ": 4945,
      "እያ": 4946,
      "##ግባ": 4947,
      "ያለው": 4948,
      "##ረው": 4949,
      "##ለን": 4950,
      "ብቻ": 4951,
      "##ታል": 4952,
      "አበ": 4953,
      "##ላት": 4954,
      "##ፈል": 4955,
      "##ገድ": 4956,
      "##ዳን": 4957,
      "የሰ": 4958,
      "##ጀመ": 4959,
      "##ግር": 4960,
      "አካ": 4961,
      "##ከል": 4962,
      "ክፍ": 4963,
      "ብዙ": 4964,
      "##ምህ": 4965,
      "አመ": 4966,
      "ወይም": 4967,
      "አብ": 4968,
      "##ንን": 4969,
      "ከአ": 4970,
      "##ለሁ": 4971,
      "##ልጣ": 4972,
      "የወ": 4973,
      "...": 4974,
      "እነ": 4975,
      "##ኛው": 4976,
      "##ማሪ": 4977,
      "አም": 4978,
      "##ኞች": 4979,
      "ሰዎች": 4980,
      "##ታወ": 4981,
      "በዚህ": 4982,
      "##ነው": 4983,
      "ናቸው": 4984,
      "##ሉት": 4985,
      "##ናት": 4986,
      "##ታዊ": 4987,
      "##ለቲ": 4988,
      "##ግዚ": 4989,
      "እየተ": 4990,
      "##ርያ": 4991,
      "##በሩ": 4992,
      "##ተው": 4993,
      "##ታቸው": 4994,
      "##ርስቲ": 4995,
      "##ሔር": 4996,
      "ከመ": 4997,
      "ቀን": 4998,
      "አቶ": 4999,
      "##ለያ": 5000,
      "##ግራ": 5001,
      "##አብ": 5002,
      "##ተር": 5003,
      "አይደ": 5004,
      "##ሚያ": 5005,
      "##ድረግ": 5006,
      "እር": 5007,
      "አበባ": 5008,
      "##ራል": 5009,
      "##ብረ": 5010,
      "##ዱስ": 5011,
      "ቤተ": 5012,
      "##ኋላ": 5013,
      "##er": 5014,
      "##ልም": 5015,
      "##ለቲካ": 5016,
      "##ባቸው": 5017,
      "የት": 5018,
      "##ከት": 5019,
      "ከፍ": 5020,
      "አዲስ": 5021,
      "##ከተ": 5022,
      "አማ": 5023,
      "##ንስ": 5024,
      "##ግዚአብ": 5025,
      "##የት": 5026,
      "##ኔታ": 5027,
      "##ደረገ": 5028,
      "መሆኑ": 5029,
      "##ድን": 5030,
      "##ቦች": 5031,
      "##ቀር": 5032,
      "##io": 5033,
      "ምክንያ": 5034,
      "በኋላ": 5035,
      "ሚኒ": 5036,
      "ጉዳይ": 5037,
      "##ማት": 5038,
      "##ያቄ": 5039,
      "##ዓት": 5040,
      "እስከ": 5041,
      "##ባቢ": 5042,
      "ሁኔታ": 5043,
      "##ይወ": 5044,
      "##ርቲ": 5045,
      "ማለት": 5046,
      "##ኖር": 5047,
      "##ጥር": 5048,
      "በላይ": 5049,
      "##መስ": 5050,
      "መንግሥ": 5051,
      "ድርጅ": 5052,
      "##ጠቀ": 5053,
      "::": 5054,
      "ምር": 5055,
      "##ቅም": 5056,
      "ማስ": 5057,
      "ጥያቄ": 5058,
      "##ዎችን": 5059,
      "##ፊት": 5060,
      "##ይል": 5061,
      "መብ": 5062,
      "##ሪክ": 5063,
      "የግ": 5064,
      "ያስ": 5065,
      "ተጠ": 5066,
      "##ርድ": 5067,
      "##ባት": 5068,
      "##ar": 5069,
      "##ገኘ": 5070,
      "##ቢያ": 5071,
      "##ጣት": 5072,
      "##ሳት": 5073,
      "አሁን": 5074,
      "አድር": 5075,
      "##ግዚአብሔር": 5076,
      "##ገራ": 5077,
      "##ምሮ": 5078,
      "‹‹": 5079,
      "ከተማ": 5080,
      "ዓመት": 5081,
      "##ዚያ": 5082,
      "ቅዱስ": 5083,
      "##ገን": 5084,
      "##ላም": 5085,
      "በቀ": 5086,
      "የህ": 5087,
      "##00": 5088,
      "ብር": 5089,
      "አይደለም": 5090,
      "የኢ": 5091,
      "የሆነ": 5092,
      "##ገኙ": 5093,
      "##መል": 5094,
      "እኔ": 5095,
      "##ያስ": 5096,
      "ማን": 5097,
      "ሥራ": 5098,
      "ብሎ": 5099,
      "##ላማ": 5100,
      "##ገና": 5101,
      "##ረስ": 5102,
      "የስ": 5103,
      "##መር": 5104,
      "##ሰው": 5105,
      "##ልል": 5106,
      "2018": 5107,
      "##ታው": 5108,
      "ይች": 5109,
      "##ይት": 5110,
      "##ገለ": 5111,
      "ሆኖ": 5112,
      "##ክት": 5113,
      "ሆነ": 5114,
      "መንግስት": 5115,
      "የቀ": 5116,
      "መንገድ": 5117,
      "##ፍት": 5118,
      "ስር": 5119,
      "##ባል": 5120,
      "መካ": 5121,
      "ዜና": 5122,
      "##ዘጋ": 5123,
      "##ምህርት": 5124,
      "ሲሆን": 5125,
      "##ሰማ": 5126,
      "##ታችን": 5127,
      "ከእ": 5128,
      "##ውያን": 5129,
      "##ጣም": 5130,
      "ዛሬ": 5131,
      "##ኛል": 5132,
      "መጠ": 5133,
      "ለአ": 5134,
      "##th": 5135,
      "ነገ": 5136,
      "ክርስቲ": 5137,
      "ሌላ": 5138,
      "##an": 5139,
      "##ምር": 5140,
      "ከዚህ": 5141,
      "##ሳይ": 5142,
      "አው": 5143,
      "##ህል": 5144,
      "##ረጋ": 5145,
      "##ሎት": 5146,
      "እንዴ": 5147,
      "##ዎቹ": 5148,
      "##ጠር": 5149,
      "መሰ": 5150,
      "##ረዳ": 5151,
      "ወቅ": 5152,
      "##ለች": 5153,
      "ጠቅ": 5154,
      "##ግለ": 5155,
      "በር": 5156,
      "##ሰራ": 5157,
      "ይህን": 5158,
      "##ልቅ": 5159,
      "እንጂ": 5160,
      "##ላሉ": 5161,
      "##ገል": 5162,
      "ያል": 5163,
      "ሚኒስት": 5164,
      "ደረጃ": 5165,
      "##ቀው": 5166,
      "ስም": 5167,
      "ከፍተኛ": 5168,
      "##ic": 5169,
      "##ሽን": 5170,
      "መጽ": 5171,
      "##ኖች": 5172,
      "##መራ": 5173,
      "በኢትዮጵያ": 5174,
      "ህዝብ": 5175,
      "##ግል": 5176,
      "##ስፋ": 5177,
      "ዋና": 5178,
      "##ሞክ": 5179,
      "##ለያዩ": 5180,
      "የው": 5181,
      "እው": 5182,
      "አቀ": 5183,
      "##ላፊ": 5184,
      "##አዴ": 5185,
      "ፕሮ": 5186,
      "ወን": 5187,
      "##ንት": 5188,
      "ስራ": 5189,
      "##ዮን": 5190,
      "##በል": 5191,
      "##ጠና": 5192,
      "##መድ": 5193,
      "##ሪዎች": 5194,
      "##ቷል": 5195,
      "##ዮች": 5196,
      "ክፍል": 5197,
      "ተወ": 5198,
      "##ኝነት": 5199,
      "##ውም": 5200,
      "እንዲሁ": 5201,
      "##ኤል": 5202,
      "መረጃ": 5203,
      "##ነሳ": 5204,
      "ቦታ": 5205,
      "አደ": 5206,
      "##ማር": 5207,
      "ፓርቲ": 5208,
      "##ልጣን": 5209,
      "በጣም": 5210,
      "የታ": 5211,
      "የበ": 5212,
      "##ሩት": 5213,
      "##ጀመሪያ": 5214,
      "##ጠበ": 5215,
      "መካከል": 5216,
      "##ክል": 5217,
      "መሆኑን": 5218,
      "##ሜሪካ": 5219,
      "##ደው": 5220,
      "ተቀ": 5221,
      "##ዘብ": 5222,
      "##ወጣ": 5223,
      "ሕዝብ": 5224,
      "##es": 5225,
      "##in": 5226,
      "አድ": 5227,
      "ስብ": 5228,
      "##ፈው": 5229,
      "በዓ": 5230,
      "እንዴት": 5231,
      "የነበረ": 5232,
      "##ቱም": 5233,
      "##ይወት": 5234,
      "##መጣ": 5235,
      "ምክንያት": 5236,
      "##ፖለቲካ": 5237,
      "አገል": 5238,
      "##ራሲ": 5239,
      "##ኩል": 5240,
      "##ያኔ": 5241,
      "##ሱን": 5242,
      "##ወሰ": 5243,
      "##ገኝ": 5244,
      "ልዩ": 5245,
      "ዓለም": 5246,
      "ተከ": 5247,
      "የማይ": 5248,
      "##ጠው": 5249,
      "##ዲያ": 5250,
      "አር": 5251,
      "በደ": 5252,
      "##ችል": 5253,
      "በፊት": 5254,
      "##ህን": 5255,
      "እንዲህ": 5256,
      "##ፍሪካ": 5257,
      "በስ": 5258,
      "##ለይ": 5259,
      "##ቀት": 5260,
      "##ይነት": 5261,
      "##ካሄ": 5262,
      "##ጨማሪ": 5263,
      "##ጨረ": 5264,
      "##ሉም": 5265,
      "##ሳብ": 5266,
      "››": 5267,
      "መንግሥት": 5268,
      "በየ": 5269,
      "በሰ": 5270,
      "##ጆች": 5271,
      "200": 5272,
      "##ላለ": 5273,
      "##ክስ": 5274,
      "##መው": 5275,
      "##ሩን": 5276,
      "የሚል": 5277,
      "##አዴግ": 5278,
      "##ንተ": 5279,
      "##or": 5280,
      "በወ": 5281,
      "ሁለት": 5282,
      "##ናገ": 5283,
      "##at": 5284,
      "##ገው": 5285,
      "##ምና": 5286,
      "ሳይሆን": 5287,
      "##thio": 5288,
      "##የር": 5289,
      "የሕ": 5290,
      "ችግር": 5291,
      "##ክር": 5292,
      "ምስ": 5293,
      "ክልል": 5294,
      "##ምነት": 5295,
      "እንዲሁም": 5296,
      "እንኳ": 5297,
      "##ከላ": 5298,
      "ምንም": 5299,
      "እኛ": 5300,
      "በነ": 5301,
      "አገር": 5302,
      "##ኦሮ": 5303,
      "##ሰባ": 5304,
      "ድረስ": 5305,
      "እጅ": 5306,
      "##ሐፍ": 5307,
      "##ያዊ": 5308,
      "##ማራ": 5309,
      "ቢሆን": 5310,
      "አካባቢ": 5311,
      "##ረብ": 5312,
      "የሚያስ": 5313,
      "##በው": 5314,
      "አላ": 5315,
      "##ቶችን": 5316,
      "አያ": 5317,
      "እንደሆነ": 5318,
      "መለ": 5319,
      "##ርትራ": 5320,
      "ሥር": 5321,
      "##ገሪ": 5322,
      "ከሚ": 5323,
      "ተብ": 5324,
      "፡-": 5325,
      "ታሪክ": 5326,
      "አሳ": 5327,
      "በም": 5328,
      "አገልግ": 5329,
      "##ተዋል": 5330,
      "##om": 5331,
      "##ደት": 5332,
      "ቃል": 5333,
      "##መረ": 5334,
      "መር": 5335,
      "ዘመን": 5336,
      "##ባለ": 5337,
      "ማዕ": 5338,
      "##ደም": 5339,
      "ዘንድ": 5340,
      "Ethio": 5341,
      "እግዚአብሔር": 5342,
      "##ግብ": 5343,
      "ሲያ": 5344,
      "እንዲያ": 5345,
      "##ውል": 5346,
      "##ፋት": 5347,
      "ልጅ": 5348,
      "##ቸዋል": 5349,
      "##ፈለ": 5350,
      "##ሞች": 5351,
      "ተቋ": 5352,
      "ወቅት": 5353,
      "##pi": 5354,
      "##ነቱ": 5355,
      "ጠቅላይ": 5356,
      "ክርስቲያን": 5357,
      "##ንና": 5358,
      "አሉ": 5359,
      "##ሱስ": 5360,
      "ለእ": 5361,
      "ሙሉ": 5362,
      "የፖለቲካ": 5363,
      "ትምህርት": 5364,
      "ወር": 5365,
      "##ግራይ": 5366,
      "##ed": 5367,
      "ሌሎች": 5368,
      "##en": 5369,
      "##ታቸውን": 5370,
      "እነዚህ": 5371,
      "##ይማ": 5372,
      "ይህንን": 5373,
      "##ዶች": 5374,
      "##ደረጉ": 5375,
      "በት": 5376,
      "ተግባ": 5377,
      "##ላክ": 5378,
      "##ሥራ": 5379,
      "አንዱ": 5380,
      "##ናቸው": 5381,
      "ለው": 5382,
      "ሚኒስትር": 5383,
      "##ቃል": 5384,
      "የሚለው": 5385,
      "መግለ": 5386,
      "##ይማኖ": 5387,
      "##ሞክራሲ": 5388,
      "ይችላል": 5389,
      "መብት": 5390,
      "ተቃ": 5391,
      "##ኘት": 5392,
      "##ረን": 5393,
      "ኢን": 5394,
      "##ጨረሻ": 5395,
      "##ቤት": 5396,
      "##ቻችን": 5397,
      "##ዳደር": 5398,
      "በሌ": 5399,
      "##ጋል": 5400,
      "##ብረት": 5401,
      "##ለዋል": 5402,
      "ጋዜ": 5403,
      "##ታይ": 5404,
      "ያሉ": 5405,
      "##ራቸው": 5406,
      "##ለማ": 5407,
      "ንግ": 5408,
      "##ፈጠ": 5409,
      "በተለይ": 5410,
      "ይገ": 5411,
      "##ቦት": 5412,
      "ከማ": 5413,
      "የደ": 5414,
      "የተሰ": 5415,
      "ፕሬ": 5416,
      "የዘ": 5417,
      "ድርጅት": 5418,
      "##ልክ": 5419,
      "##al": 5420,
      "##ሳሌ": 5421,
      "##ሊዮን": 5422,
      "##መና": 5423,
      "ይዘ": 5424,
      "##ንዳ": 5425,
      "##ጠቃ": 5426,
      "ኮሚ": 5427,
      "##ሏል": 5428,
      "አት": 5429,
      "ዓመታት": 5430,
      "##በብ": 5431,
      "##ጥታ": 5432,
      "##ርቶ": 5433,
      "ይሆ": 5434,
      "##ዝቡ": 5435,
      "!!": 5436,
      "የለም": 5437,
      "አንዳ": 5438,
      "ተስፋ": 5439,
      "##ቤተ": 5440,
      "ያህል": 5441,
      "##ንቀ": 5442,
      "##ከር": 5443,
      "Ethiopi": 5444,
      "ተፈ": 5445,
      "##ራን": 5446,
      "ሁለ": 5447,
      "መዝ": 5448,
      "ማድረግ": 5449,
      "ገን": 5450,
      "##ልፍ": 5451,
      "##ድሞ": 5452,
      "19": 5453,
      "ለም": 5454,
      "##ርሱ": 5455,
      "##ቅስ": 5456,
      "##ካም": 5457,
      "##ሬት": 5458,
      "ድም": 5459,
      "##የሱስ": 5460,
      "ቁጥር": 5461,
      "ከሆነ": 5462,
      "አስፈ": 5463,
      "##ልን": 5464,
      "##ሳቸው": 5465,
      "##ew": 5466,
      "##ካታ": 5467,
      "ማህ": 5468,
      "ብለው": 5469,
      "ይሄ": 5470,
      "ሊያ": 5471,
      "በማለት": 5472,
      "አጋ": 5473,
      "በሙ": 5474,
      "##ቃት": 5475,
      "በጥ": 5476,
      "##ስና": 5477,
      "መግለጫ": 5478,
      "ፖሊ": 5479,
      "አዋ": 5480,
      "ውጤ": 5481,
      "ኃይ": 5482,
      "##ንቋ": 5483,
      "##ህአዴግ": 5484,
      "##ከራ": 5485,
      "##ቸዉ": 5486,
      "እንዳይ": 5487,
      "ስለዚህ": 5488,
      "##ዓለም": 5489,
      "የብ": 5490,
      "##ርነት": 5491,
      "##ትም": 5492,
      "በአንድ": 5493,
      "##ተን": 5494,
      "የምት": 5495,
      "አሰ": 5496,
      "እንደተ": 5497,
      "10": 5498,
      "##ay": 5499,
      "ወጣ": 5500,
      "##ጠት": 5501,
      "##ፉት": 5502,
      "በመሆኑ": 5503,
      "##ርያም": 5504,
      "ጉባ": 5505,
      "ጨዋ": 5506,
      "##ቡብ": 5507,
      "ዘር": 5508,
      "ሀገር": 5509,
      "##ራው": 5510,
      "መሠ": 5511,
      "ይሆናል": 5512,
      "ሰላም": 5513,
      "##ነጋ": 5514,
      "ሰዓት": 5515,
      "##ኮኖ": 5516,
      "ለሚ": 5517,
      "##ፖርት": 5518,
      "##ላችሁ": 5519,
      "አገልግሎት": 5520,
      "በህ": 5521,
      "##ድም": 5522,
      "##በትን": 5523,
      "ለምን": 5524,
      "ድን": 5525,
      "##ቀረ": 5526,
      "በኢ": 5527,
      "ጀምሮ": 5528,
      "##ገሪቱ": 5529,
      "የምን": 5530,
      "ሁሉም": 5531,
      "##ቂያ": 5532,
      "ያለውን": 5533,
      "ይገባ": 5534,
      "መቀ": 5535,
      "እድ": 5536,
      "በው": 5537,
      "##ቶስ": 5538,
      "ለተ": 5539,
      "##ዛት": 5540,
      "##ገቡ": 5541,
      "##ይና": 5542,
      "ፖለቲካ": 5543,
      "የሀ": 5544,
      "##ችንን": 5545,
      "በኩል": 5546,
      "የተባ": 5547,
      "##መሰ": 5548,
      "መሆን": 5549,
      "##ቅና": 5550,
      "##ጡት": 5551,
      "በሚል": 5552,
      "##ፈጸ": 5553,
      "በታ": 5554,
      "##ኖሩ": 5555,
      "##በቃ": 5556,
      "##ለኝ": 5557,
      "ምርጫ": 5558,
      "##ስታ": 5559,
      "##ቻቸው": 5560,
      "##ያዘ": 5561,
      "ይሁን": 5562,
      "ችግ": 5563,
      "##ገነ": 5564,
      "##ላው": 5565,
      "ገል": 5566,
      "የመንግ": 5567,
      "##ሰጥ": 5568,
      "##ጊዜ": 5569,
      "##ግኘት": 5570,
      "ነፃ": 5571,
      "በሕ": 5572,
      "##ነበረ": 5573,
      "##ረዋል": 5574,
      "##ገደ": 5575,
      "##ኑን": 5576,
      "ትን": 5577,
      "ዕድ": 5578,
      "##ራር": 5579,
      "ነዉ": 5580,
      "የጥ": 5581,
      "የሆኑ": 5582,
      "##ኒቨ": 5583,
      "##ዘጋጀ": 5584,
      "##ጠቀም": 5585,
      "እንኳን": 5586,
      "##ሳኔ": 5587,
      "አማራ": 5588,
      "##የው": 5589,
      "##ተኞች": 5590,
      "##on": 5591,
      "መንፈ": 5592,
      "ግንባ": 5593,
      "##ጠይ": 5594,
      "##ነስ": 5595,
      "##ደረግ": 5596,
      "##ሰር": 5597,
      "በሁ": 5598,
      "##ጠቅ": 5599,
      "##ማይ": 5600,
      "ኢትዮጵያዊ": 5601,
      "##ደራ": 5602,
      "ቡድን": 5603,
      "##ክተር": 5604,
      "##ጎች": 5605,
      "ተና": 5606,
      "እጅግ": 5607,
      "በብ": 5608,
      "##ረም": 5609,
      "አዳ": 5610,
      "##ሉን": 5611,
      "በ1": 5612,
      "የሌ": 5613,
      "ትር": 5614,
      "##ርስቶስ": 5615,
      "አባላት": 5616,
      "ኃላፊ": 5617,
      "##ገኘው": 5618,
      "መጽሐፍ": 5619,
      "##ባይ": 5620,
      "##ብት": 5621,
      "##ሰቦች": 5622,
      "##ነገ": 5623,
      "እንግ": 5624,
      "##ወቅ": 5625,
      "##ጋት": 5626,
      "ከም": 5627,
      "##ደረገው": 5628,
      "የራ": 5629,
      "11": 5630,
      "ምክር": 5631,
      "##ነትን": 5632,
      "የኦሮ": 5633,
      "በፍ": 5634,
      "##ጥሮ": 5635,
      "##ሰቡ": 5636,
      "ካል": 5637,
      "##ሁኑ": 5638,
      "ሲል": 5639,
      "ውድ": 5640,
      "ጨዋታ": 5641,
      "##ላዊ": 5642,
      "12": 5643,
      "##ብን": 5644,
      "##ፈር": 5645,
      "ኣብ": 5646,
      "ግንኙ": 5647,
      "አቀፍ": 5648,
      "##st": 5649,
      "በግ": 5650,
      "##ጭት": 5651,
      "ገንዘብ": 5652,
      "አቅ": 5653,
      "የተለያዩ": 5654,
      "##le": 5655,
      "##ደርግ": 5656,
      "##ዛሬ": 5657,
      "##መት": 5658,
      "መድረ": 5659,
      "ባህ": 5660,
      "ዝግ": 5661,
      "ፍርድ": 5662,
      "##ጋራ": 5663,
      "##ምጃ": 5664,
      "ይመስ": 5665,
      "##ገራችን": 5666,
      "ቋንቋ": 5667,
      "ዓይነት": 5668,
      "##ምንት": 5669,
      "##ርክ": 5670,
      "##ዲህ": 5671,
      "ጥቅም": 5672,
      "##ችው": 5673,
      "ግብ": 5674,
      "##ወሓ": 5675,
      "##ሄድ": 5676,
      "ስን": 5677,
      "##ታደ": 5678,
      "##በሩት": 5679,
      "በርካታ": 5680,
      "##ዳር": 5681,
      "##ቃሴ": 5682,
      "ጉዳዮች": 5683,
      "የል": 5684,
      "ለማስ": 5685,
      "አለመ": 5686,
      "የባ": 5687,
      "##ቅድ": 5688,
      "ጥሩ": 5689,
      "##ቅስቃሴ": 5690,
      "##ኮኖሚ": 5691,
      "##ኛውም": 5692,
      "##ቀጥ": 5693,
      "አለበት": 5694,
      "##ገብ": 5695,
      "የለ": 5696,
      "መጥ": 5697,
      "ባን": 5698,
      "ኢየሱስ": 5699,
      "መሪ": 5700,
      "##ሳዊ": 5701,
      "##ላጊ": 5702,
      "##ነግ": 5703,
      "##re": 5704,
      "##ያዝ": 5705,
      "ያሳ": 5706,
      "##ዳንት": 5707,
      "##ይማኖት": 5708,
      "##ስን": 5709,
      "ለዚህ": 5710,
      "ዘመ": 5711,
      "##ከፍ": 5712,
      "አፍ": 5713,
      "በአዲስ": 5714,
      "ውሳኔ": 5715,
      "ሰብ": 5716,
      "ነጻ": 5717,
      "ብሔ": 5718,
      "##ይይት": 5719,
      "ተብሎ": 5720,
      "##ገናኛ": 5721,
      "ወያኔ": 5722,
      "ከዚያ": 5723,
      "##ለጠ": 5724,
      "##ዚሁ": 5725,
      "##ረጋገ": 5726,
      "##ናው": 5727,
      "በራ": 5728,
      "##ሥት": 5729,
      "ግድ": 5730,
      "እንድ": 5731,
      "##ሜን": 5732,
      "በቅር": 5733,
      "እንቅስቃሴ": 5734,
      "ተዋ": 5735,
      "ልጆች": 5736,
      "መነ": 5737,
      "ተመ": 5738,
      "ቅድ": 5739,
      "ታላ": 5740,
      "አስተያ": 5741,
      "ለውጥ": 5742,
      "አህ": 5743,
      "በሀ": 5744,
      "አስተዳደር": 5745,
      "ኃይል": 5746,
      "##ያው": 5747,
      "ወንጀ": 5748,
      "ተማሪ": 5749,
      "##ልና": 5750,
      "##ቀመ": 5751,
      "##ግጥ": 5752,
      "ጉባኤ": 5753,
      "ሀገ": 5754,
      "እዚህ": 5755,
      "##ion": 5756,
      "##ርሲ": 5757,
      "##it": 5758,
      "የመጀመሪያ": 5759,
      "ኤርትራ": 5760,
      "ርዕ": 5761,
      "##ተኛው": 5762,
      "የሚሰ": 5763,
      "##ብረተ": 5764,
      "##ሁንም": 5765,
      "ቤቶች": 5766,
      "ድርጅቶች": 5767,
      "ህዝ": 5768,
      "15": 5769,
      "ወንድ": 5770,
      "##ሻሻ": 5771,
      "##ሃት": 5772,
      "##ትር": 5773,
      "በሙሉ": 5774,
      "##ch": 5775,
      "መንግስ": 5776,
      "##ስር": 5777,
      "የገ": 5778,
      "በዘ": 5779,
      "##ነሱ": 5780,
      "እንዳለ": 5781,
      "ዋጋ": 5782,
      "ሚሊዮን": 5783,
      "መልኩ": 5784,
      "##ቆጣ": 5785,
      "ስት": 5786,
      "##ቀል": 5787,
      "ማኅ": 5788,
      "##ከሰ": 5789,
      "##ደርጉ": 5790,
      "##ሊዝ": 5791,
      "መልካም": 5792,
      "##ገት": 5793,
      "መደ": 5794,
      "##ቃሚ": 5795,
      "ልብ": 5796,
      "አለው": 5797,
      "ፕሮግራ": 5798,
      "ይህም": 5799,
      "##ባዊ": 5800,
      "ቤቱ": 5801,
      "መሰረት": 5802,
      "##ጋፍ": 5803,
      "ተጨማሪ": 5804,
      "ማሳ": 5805,
      "##ብራ": 5806,
      "ገብ": 5807,
      "አጥ": 5808,
      "##ሯል": 5809,
      "ግንኙነት": 5810,
      "የነበረው": 5811,
      "በ2": 5812,
      "##ውሞ": 5813,
      "##ይን": 5814,
      "##ጠራ": 5815,
      "##ዋሚ": 5816,
      "አሁንም": 5817,
      "አይነት": 5818,
      "አንተ": 5819,
      "ስል": 5820,
      "የቅ": 5821,
      "##ክለ": 5822,
      "ዩኒቨ": 5823,
      "ብለዋል": 5824,
      "አምላክ": 5825,
      "በረ": 5826,
      "##ብኝ": 5827,
      "ሺህ": 5828,
      "##em": 5829,
      "##ላን": 5830,
      "አፈ": 5831,
      "##ላማዊ": 5832,
      "##el": 5833,
      "##ቋም": 5834,
      "##ሶች": 5835,
      "የኤ": 5836,
      "##ሮችን": 5837,
      "##በታል": 5838,
      "የሰው": 5839,
      "አሸ": 5840,
      "##ባብ": 5841,
      "14": 5842,
      "የፍ": 5843,
      "##ወሓት": 5844,
      "አሜሪካ": 5845,
      "##መለስ": 5846,
      "ትልቅ": 5847,
      "##ችሉ": 5848,
      "##ሄር": 5849,
      "ያልተ": 5850,
      "የውጭ": 5851,
      "መመ": 5852,
      "ገጽ": 5853,
      "##ዋን": 5854,
      "አደጋ": 5855,
      "##ቻል": 5856,
      "ለማድረግ": 5857,
      "ባይ": 5858,
      "##ሳተ": 5859,
      "ይችላሉ": 5860,
      "ስብሰባ": 5861,
      "##ጠብ": 5862,
      "##ሳል": 5863,
      "ከወ": 5864,
      "አድርጎ": 5865,
      "##ጣል": 5866,
      "##ደረሰ": 5867,
      "ግለ": 5868,
      "ፍቅር": 5869,
      "##ርሲቲ": 5870,
      "##ዕራ": 5871,
      "##መለከ": 5872,
      "ተገ": 5873,
      "ኢትዮጵያውያን": 5874,
      "##ድሮ": 5875,
      "##ቂት": 5876,
      "የሃ": 5877,
      "##ቡነ": 5878,
      "በተጨማሪ": 5879,
      "እውነ": 5880,
      "ሲሉ": 5881,
      "##ለህ": 5882,
      "##ንደር": 5883,
      "ተናግ": 5884,
      "##ዛዝ": 5885,
      "##ጠኛ": 5886,
      "ቆይ": 5887,
      "ሕግ": 5888,
      "መሠረት": 5889,
      "የተለ": 5890,
      "16": 5891,
      "መሆ": 5892,
      "ኮሚቴ": 5893,
      "##ቹን": 5894,
      "ይልቅ": 5895,
      "##ተት": 5896,
      "ነጋ": 5897,
      "ወጥ": 5898,
      "##ሱም": 5899,
      "##ዲዮ": 5900,
      "##ስብ": 5901,
      "አካል": 5902,
      "##››": 5903,
      "##መለከተ": 5904,
      "ያላ": 5905,
      "ነገሮች": 5906,
      "አብይ": 5907,
      "በማድረግ": 5908,
      "ይላል": 5909,
      "##ሠራ": 5910,
      "ግል": 5911,
      "##ጠል": 5912,
      "##ፈት": 5913,
      "##is": 5914,
      "አልተ": 5915,
      "በል": 5916,
      "##ou": 5917,
      "አንዳንድ": 5918,
      "ዙሪያ": 5919,
      "##ከለ": 5920,
      "የሚገኙ": 5921,
      "##ዳጅ": 5922,
      "መፍት": 5923,
      "##ሙያ": 5924,
      "##ናገር": 5925,
      "የአማራ": 5926,
      "መም": 5927,
      "የአዲስ": 5928,
      "##አት": 5929,
      "ስለሆነ": 5930,
      "በበ": 5931,
      "ሊቀ": 5932,
      "ባል": 5933,
      "##ቆም": 5934,
      "መታ": 5935,
      "##ነትና": 5936,
      "##ላሽ": 5937,
      "18": 5938,
      "##ወስ": 5939,
      "ሆነው": 5940,
      "Ethiopia": 5941,
      "##ጠፋ": 5942,
      "ግንቦት": 5943,
      "እርምጃ": 5944,
      "ገበ": 5945,
      "ያላቸው": 5946,
      "ሕዝ": 5947,
      "##ንደ": 5948,
      "##ስራ": 5949,
      "ያሉት": 5950,
      "##ምህር": 5951,
      "##ሃን": 5952,
      "##ርዝ": 5953,
      "ማስተ": 5954,
      "##ቋል": 5955,
      "##ንብ": 5956,
      "##ረድ": 5957,
      "ይሰ": 5958,
      "ሰነ": 5959,
      "##ews": 5960,
      "13": 5961,
      "በተለያዩ": 5962,
      "##ኩት": 5963,
      "አመት": 5964,
      "ነጥ": 5965,
      "የቆ": 5966,
      "##ክርስቲ": 5967,
      "ፍላ": 5968,
      "##ጠሩ": 5969,
      "አክ": 5970,
      "መድ": 5971,
      "##ችልም": 5972,
      "##ማን": 5973,
      "ደር": 5974,
      "ይገባል": 5975,
      "ወገ": 5976,
      "የዓለም": 5977,
      "ውይይት": 5978,
      "ከነ": 5979,
      "ከ1": 5980,
      "አድራ": 5981,
      "##ካባቢ": 5982,
      "ሊሆን": 5983,
      "ማዕከል": 5984,
      "ቢሆንም": 5985,
      "##ሎጂ": 5986,
      "##ጅት": 5987,
      "የሞ": 5988,
      "ድጋፍ": 5989,
      "የፌ": 5990,
      "##ጠቃላይ": 5991,
      "መው": 5992,
      "ውጭ": 5993,
      "ክርስቶስ": 5994,
      "##ሳን": 5995,
      "ነኝ": 5996,
      "##ቅረብ": 5997,
      "##ing": 5998,
      "##በራዊ": 5999,
      "ቀደም": 6000,
      "##ሰሩ": 6001,
      "ከሌ": 6002,
      "##ወር": 6003,
      "አፍሪካ": 6004,
      "##ደግ": 6005,
      "እምነት": 6006,
      "ከሰ": 6007,
      "ፕሬዚ": 6008,
      "##ረተ": 6009,
      "ፈቃ": 6010,
      "##ርስዎ": 6011,
      "ስሜ": 6012,
      "መለስ": 6013,
      "ትግል": 6014,
      "##ፈን": 6015,
      "ተመል": 6016,
      "##ከታ": 6017,
      "በጎ": 6018,
      "##har": 6019,
      "የለው": 6020,
      "##ገኛ": 6021,
      "ኦሮ": 6022,
      "##ጠየ": 6023,
      "ንጉ": 6024,
      "##ርባ": 6025,
      "##ሙን": 6026,
      "ተሰ": 6027,
      "2010": 6028,
      "##ሙት": 6029,
      "በሌላ": 6030,
      "##ፎች": 6031,
      "ክርስቲያ": 6032,
      "##ከያ": 6033,
      "የካ": 6034,
      "##ከብ": 6035,
      "##ሳሳይ": 6036,
      "##ነበር": 6037,
      "በመስ": 6038,
      "##ፖር": 6039,
      "##ቀም": 6040,
      "ትውል": 6041,
      "በሆነ": 6042,
      "ሕይወት": 6043,
      "ወል": 6044,
      "##ውና": 6045,
      "ትኩ": 6046,
      "##ለቱ": 6047,
      "##ስቴ": 6048,
      "##ሮፓ": 6049,
      "ይገኛል": 6050,
      "እስካ": 6051,
      "ጌታ": 6052,
      "ፍላጎ": 6053,
      "ውጤት": 6054,
      "ጥሪ": 6055,
      "##ጀት": 6056,
      "አቡነ": 6057,
      "##ግና": 6058,
      "ኢህአዴግ": 6059,
      "ነዋ": 6060,
      "##ንቀሳ": 6061,
      "##ጠበቅ": 6062,
      "ይቻ": 6063,
      "ጨምሮ": 6064,
      "ልማት": 6065,
      "##ቀበ": 6066,
      "##ለፍ": 6067,
      "##ተና": 6068,
      "##ደጋ": 6069,
      "መቶ": 6070,
      "##ber": 6071,
      "##ንፈ": 6072,
      "አማር": 6073,
      "አባል": 6074,
      "##ጉም": 6075,
      "##ደርስ": 6076,
      "የቀረ": 6077,
      "መልስ": 6078,
      "##ናወ": 6079,
      "መሳ": 6080,
      "##ol": 6081,
      "አስፈላጊ": 6082,
      "##ላር": 6083,
      "ነበረ": 6084,
      "##ary": 6085,
      "##ዲሱ": 6086,
      "የትግራይ": 6087,
      "ሦስት": 6088,
      "ተደር": 6089,
      "ስለሚ": 6090,
      "ይሆን": 6091,
      "ካለ": 6092,
      "አማርኛ": 6093,
      "ገለ": 6094,
      "በመቶ": 6095,
      "ፕሮግራም": 6096,
      "ቀጥ": 6097,
      "ዓላማ": 6098,
      "የጎ": 6099,
      "##ንካ": 6100,
      "##ገንዘብ": 6101,
      "ክል": 6102,
      "##ረጥ": 6103,
      "##ደን": 6104,
      "17": 6105,
      "የክ": 6106,
      "ከሁ": 6107,
      "##eb": 6108,
      "ይቻላል": 6109,
      "##ለውን": 6110,
      "##ኳይ": 6111,
      "##ዳል": 6112,
      "ያስፈል": 6113,
      "ፖሊስ": 6114,
      "ያደር": 6115,
      "መተ": 6116,
      "መሬት": 6117,
      "##ፍን": 6118,
      "##ቀስ": 6119,
      "መጠን": 6120,
      "##ፈራ": 6121,
      "የኦሮሞ": 6122,
      "##ቸኳይ": 6123,
      "ብዬ": 6124,
      "##ላችን": 6125,
      "##ስትና": 6126,
      "ይዞ": 6127,
      "በሽ": 6128,
      "##ሰን": 6129,
      "እም": 6130,
      "##ግም": 6131,
      "##ad": 6132,
      "ቀናት": 6133,
      "##nd": 6134,
      "በአሁኑ": 6135,
      "ማርያም": 6136,
      "ይታወ": 6137,
      "ነበሩ": 6138,
      "##ርመን": 6139,
      "##am": 6140,
      "እንደሚያ": 6141,
      "አንደ": 6142,
      "አንድነት": 6143,
      "ትክ": 6144,
      "##ማል": 6145,
      "ሥርዓት": 6146,
      "##ሊያ": 6147,
      "ወጣቶች": 6148,
      "ስርዓት": 6149,
      "##ርቶዶ": 6150,
      "##ትል": 6151,
      "ዶክተር": 6152,
      "የአንድ": 6153,
      "ፍት": 6154,
      "የሁ": 6155,
      "##ጋቸው": 6156,
      "በቁ": 6157,
      "##ባንያ": 6158,
      "ፊት": 6159,
      "ደስ": 6160,
      "##ሻለ": 6161,
      "##የን": 6162,
      "ሰማ": 6163,
      "በግል": 6164,
      "ቅር": 6165,
      "##ሰት": 6166,
      "ናት": 6167,
      "።”": 6168,
      "##ኗል": 6169,
      "Am": 6170,
      "የተፈ": 6171,
      "እውነት": 6172,
      "የአፍሪካ": 6173,
      "##ጣሪ": 6174,
      "##ከፋ": 6175,
      "##ስሊ": 6176,
      "ወንጀል": 6177,
      "##ስማ": 6178,
      "ዜጎች": 6179,
      "##ንጫ": 6180,
      "##he": 6181,
      "##ቡር": 6182,
      "ከባ": 6183,
      "##ባሪ": 6184,
      "ጦርነት": 6185,
      "ተግባር": 6186,
      "##uary": 6187,
      "25": 6188,
      "ገና": 6189,
      "##ጠን": 6190,
      "በቅ": 6191,
      "የቀድሞ": 6192,
      "ለመስ": 6193,
      "ምንድ": 6194,
      "ሰጥ": 6195,
      "በተመለከተ": 6196,
      "አህመድ": 6197,
      "##ካል": 6198,
      "##ማቸው": 6199,
      "##ያት": 6200,
      "##ክኖ": 6201,
      "##ኖረው": 6202,
      "##ንግድ": 6203,
      "በእር": 6204,
      "##ማርኛ": 6205,
      "21": 6206,
      "አንቀ": 6207,
      "የቤተ": 6208,
      "መሪዎች": 6209,
      "##ጋቢ": 6210,
      "ወጣት": 6211,
      "ብሔራዊ": 6212,
      "##ማዊ": 6213,
      "ዴሞክራሲ": 6214,
      "የነበሩ": 6215,
      "ጥረት": 6216,
      "30": 6217,
      "ተቋማት": 6218,
      "ስላ": 6219,
      "አቅር": 6220,
      "##us": 6221,
      "ዶላር": 6222,
      "##ከላከያ": 6223,
      "##ገበ": 6224,
      "##ቁት": 6225,
      "ዩኒቨርሲቲ": 6226,
      "##ro": 6227,
      "##ጋሚ": 6228,
      "ምላሽ": 6229,
      "ትግ": 6230,
      "ደብ": 6231,
      "የአሜሪካ": 6232,
      "##ባሉ": 6233,
      "##ያል": 6234,
      "##ጠረ": 6235,
      "##ጫወ": 6236,
      "ሳምንት": 6237,
      "##በኞች": 6238,
      "የሙ": 6239,
      "##ጣሚ": 6240,
      "ምክንያቱም": 6241,
      "##ቾች": 6242,
      "በማስ": 6243,
      "##ባለው": 6244,
      "##ሳቸውን": 6245,
      "ለምሳሌ": 6246,
      "##ri": 6247,
      "እንዳል": 6248,
      "አስተያየት": 6249,
      "መዋ": 6250,
      "በዓለም": 6251,
      "የሆነው": 6252,
      "መንገ": 6253,
      "##ነቱን": 6254,
      "የኮ": 6255,
      "የስራ": 6256,
      "##ፍራ": 6257,
      "##ዳት": 6258,
      "መዝሙ": 6259,
      "##ሞት": 6260,
      "ባለሙያ": 6261,
      "እያለ": 6262,
      "አራት": 6263,
      "ይዘት": 6264,
      "በ19": 6265,
      "##ደል": 6266,
      "የሥራ": 6267,
      "##ጥጥር": 6268,
      "ጣቢያ": 6269,
      "በክ": 6270,
      "ግም": 6271,
      "##ገባው": 6272,
      "##ዱት": 6273,
      "የሚለውን": 6274,
      "##ኪያ": 6275,
      "##ኞቹ": 6276,
      "##ቡት": 6277,
      "##ወጡ": 6278,
      "ጥበቃ": 6279,
      "አመራ": 6280,
      "ምድር": 6281,
      "##ከናወ": 6282,
      "ተቃውሞ": 6283,
      "##ts": 6284,
      "##ክቶ": 6285,
      "##ዘጋጅ": 6286,
      "ሆኖም": 6287,
      "ጽሑ": 6288,
      "##ክምና": 6289,
      "አማካ": 6290,
      "ቀር": 6291,
      "##ወሃት": 6292,
      "##ጣቸው": 6293,
      "##ግባር": 6294,
      "##ከተማ": 6295,
      "የኦ": 6296,
      "##ያንዳን": 6297,
      "የመንግስት": 6298,
      "ግንባታ": 6299,
      "የዚህ": 6300,
      "##ዉን": 6301,
      "በድ": 6302,
      "##ክኖሎጂ": 6303,
      "##ዘን": 6304,
      "ልክ": 6305,
      "ኩባንያ": 6306,
      "የፈ": 6307,
      "##ጅም": 6308,
      "##ናቸውን": 6309,
      "አምባ": 6310,
      "ሚኒስቴ": 6311,
      "com": 6312,
      "ማስታወ": 6313,
      "ቡድ": 6314,
      "##ላላ": 6315,
      "ተናግረዋል": 6316,
      "##ንነት": 6317,
      "Ethiopian": 6318,
      "##ዓዊ": 6319,
      "##ኮች": 6320,
      "ግር": 6321,
      "##ኖዶ": 6322,
      "በዓል": 6323,
      "በዚያ": 6324,
      "ያው": 6325,
      "##ዳታ": 6326,
      "ባለፈው": 6327,
      "##ያቸው": 6328,
      "##haric": 6329,
      "##ብረተሰብ": 6330,
      "##በኛ": 6331,
      "ድርጊ": 6332,
      "##በረሰብ": 6333,
      "በይ": 6334,
      "መፍ": 6335,
      "##ፍና": 6336,
      "##ራሽ": 6337,
      "ጉዞ": 6338,
      "አድራሻ": 6339,
      "##ነዚህ": 6340,
      "##ልድ": 6341,
      "##ሃል": 6342,
      "ቅዱ": 6343,
      "##ህና": 6344,
      "##ታወቀ": 6345,
      "2017": 6346,
      "!!!": 6347,
      "##ቶቹ": 6348,
      "ጥያቄዎች": 6349,
      "?”": 6350,
      "ቢሮ": 6351,
      "ይፋ": 6352,
      "!”": 6353,
      "ህግ": 6354,
      "ሂደት": 6355,
      "##ሳሰ": 6356,
      "መንፈስ": 6357,
      "ሌላው": 6358,
      "በባ": 6359,
      "ሕገ": 6360,
      "በቅርቡ": 6361,
      "##ጋሪ": 6362,
      "##ፈልጉ": 6363,
      "ተማሪዎች": 6364,
      "News": 6365,
      "ይቅር": 6366,
      "##ኪና": 6367,
      "መጣ": 6368,
      "##ጋዊ": 6369,
      "ለኢትዮጵያ": 6370,
      "##ወጥ": 6371,
      "##የሁ": 6372,
      "##ክርስቲያን": 6373,
      "##ትርያ": 6374,
      "ኳስ": 6375,
      "ትውልድ": 6376,
      "ተቃዋሚ": 6377,
      "##day": 6378,
      "አዋጅ": 6379,
      "ገብረ": 6380,
      "የምር": 6381,
      "በሃ": 6382,
      "##eg": 6383,
      "##አዊ": 6384,
      "##ሪቃ": 6385,
      "##ገዛ": 6386,
      "ታላቅ": 6387,
      "ኢትዮጵያን": 6388,
      "የሚታ": 6389,
      "ወዳ": 6390,
      "##ንበት": 6391,
      "##ምፒ": 6392,
      "የተቀ": 6393,
      "##et": 6394,
      "ኦርቶዶ": 6395,
      "ምዕራ": 6396,
      "ምል": 6397,
      "##ርዝር": 6398,
      "አግ": 6399,
      "##ደብ": 6400,
      "##ዝና": 6401,
      "ወታደ": 6402,
      "##ኔት": 6403,
      "የትምህርት": 6404,
      "ተራ": 6405,
      "እራ": 6406,
      "##ቀቅ": 6407,
      "ንግግር": 6408,
      "ዝም": 6409,
      "ሴቶች": 6410,
      "ገዳ": 6411,
      "##ከፈ": 6412,
      "##ረዳት": 6413,
      "##ቃወ": 6414,
      "ጋዜጣ": 6415,
      "ስልጣን": 6416,
      "የግል": 6417,
      "መልዕ": 6418,
      "##ዚቃ": 6419,
      "##መጡ": 6420,
      "ተጫ": 6421,
      "Amharic": 6422,
      "በቀጥታ": 6423,
      "##ዎን": 6424,
      "ሚኒስቴር": 6425,
      "##ያይ": 6426,
      "##ነታቸው": 6427,
      "የመገናኛ": 6428,
      "የተወሰ": 6429,
      "ደጋ": 6430,
      "##ያዙ": 6431,
      "##ምባ": 6432,
      "ህይወት": 6433,
      "##ሎችን": 6434,
      "እኮ": 6435,
      "##ደረጉት": 6436,
      "##ዘር": 6437,
      "ክብር": 6438,
      "##as": 6439,
      "##ገረ": 6440,
      "##በላ": 6441,
      "##ቢይ": 6442,
      "##ከፍተኛ": 6443,
      "ለሁ": 6444,
      "##ህንነት": 6445,
      "##ኃን": 6446,
      "ጥቃት": 6447,
      "##ልቁ": 6448,
      "ሚኒስትሩ": 6449,
      "እናንተ": 6450,
      "ሚዲያ": 6451,
      "##ቁር": 6452,
      "24": 6453,
      "ቃለ": 6454,
      "ለህ": 6455,
      "##ጣን": 6456,
      "ተከት": 6457,
      "ሃይ": 6458,
      "23": 6459,
      "##ከበር": 6460,
      "ይላሉ": 6461,
      "የሚፈ": 6462,
      "መድረክ": 6463,
      "የወያኔ": 6464,
      "ተጠቃሚ": 6465,
      "በተለይም": 6466,
      "ነን": 6467,
      "ባለስ": 6468,
      "ሲኖዶ": 6469,
      "ብለን": 6470,
      "አምስት": 6471,
      "##ንታ": 6472,
      "ባንክ": 6473,
      "ስድ": 6474,
      "ስምምነት": 6475,
      "አመራር": 6476,
      "አየር": 6477,
      "##ታማ": 6478,
      "ሴት": 6479,
      "##ሱት": 6480,
      "አካላት": 6481,
      "##ዳዳ": 6482,
      "ጉዳት": 6483,
      "##ደገ": 6484,
      "የሚቆ": 6485,
      "##ዎችና": 6486,
      "##ካሄድ": 6487,
      "##ጮች": 6488,
      "አረ": 6489,
      "በዚህም": 6490,
      "የሰብ": 6491,
      "ነፍ": 6492,
      "የተነሳ": 6493,
      "##ጠቅላይ": 6494,
      "##01": 6495,
      "የህዝብ": 6496,
      "##ካት": 6497,
      "ሳይንስ": 6498,
      "ትኩረት": 6499,
      "##ሰበ": 6500,
      "ለማግኘት": 6501,
      "##ናገሩ": 6502,
      "##ዳቤ": 6503,
      "##ጓል": 6504,
      "##የም": 6505,
      "አገሮች": 6506,
      "ብሄ": 6507,
      "የዋ": 6508,
      "ለወ": 6509,
      "##ችሁን": 6510,
      "አብዛ": 6511,
      "ደም": 6512,
      "##ጥረት": 6513,
      "##ያቂ": 6514,
      "በወቅ": 6515,
      "##ዱን": 6516,
      "ያስተ": 6517,
      "ወረ": 6518,
      "መልእ": 6519,
      "ሶስት": 6520,
      "ፕሬዚዳንት": 6521,
      "##ራዊት": 6522,
      "የጋራ": 6523,
      "መኖ": 6524,
      "ሃሳብ": 6525,
      "የዕ": 6526,
      "ከኢትዮጵያ": 6527,
      "##ፊያ": 6528,
      "ይታ": 6529,
      "የፓ": 6530,
      "በዋ": 6531,
      "##ቀርብ": 6532,
      "ስሜት": 6533,
      "ጥናት": 6534,
      "ግብር": 6535,
      "##ሁፍ": 6536,
      "##ጥም": 6537,
      "##ራሉ": 6538,
      "የፀ": 6539,
      "መግ": 6540,
      "የበላይ": 6541,
      "ችግሮች": 6542,
      "##ልኝ": 6543,
      "ክር": 6544,
      "##ላሴ": 6545,
      "ድረ": 6546,
      "ይባ": 6547,
      "##ember": 6548,
      "እንደማይ": 6549,
      "አወ": 6550,
      "ባለው": 6551,
      "የመስ": 6552,
      "የምና": 6553,
      "የእግዚአብሔር": 6554,
      "የንግድ": 6555,
      "ግጭት": 6556,
      "ተገቢ": 6557,
      "የወጣ": 6558,
      "ዋናው": 6559,
      "ጓደ": 6560,
      "ገልጸ": 6561,
      "የመጣ": 6562,
      "ሰላማዊ": 6563,
      "##ዳሴ": 6564,
      "##በትም": 6565,
      "መሥ": 6566,
      "ለብ": 6567,
      "አራ": 6568,
      "##ችላ": 6569,
      "##ሸነ": 6570,
      "##ጋይ": 6571,
      "##ጽሐፍ": 6572,
      "የሚችል": 6573,
      "ፓርቲዎች": 6574,
      "ተከታ": 6575,
      "##ስቸኳይ": 6576,
      "ከ2": 6577,
      "ጳጳ": 6578,
      "ይኖር": 6579,
      "በጉ": 6580,
      "##ናዊ": 6581,
      "መላ": 6582,
      "የፕ": 6583,
      "##ንጀ": 6584,
      "የሥ": 6585,
      "አስታው": 6586,
      "ብዙኃን": 6587,
      "##ፈጠረ": 6588,
      "መጻ": 6589,
      "ማስረጃ": 6590,
      "##ከቱ": 6591,
      "##ov": 6592,
      "እርሱ": 6593,
      "##ጥፋት": 6594,
      "##ልቃ": 6595,
      "ከበ": 6596,
      "ደን": 6597,
      "እስካሁን": 6598,
      "ሰር": 6599,
      "##ሳሰብ": 6600,
      "ከስ": 6601,
      "##ሰድ": 6602,
      "እስር": 6603,
      "##ካሄደ": 6604,
      "##ቅረ": 6605,
      "##ሪያዎች": 6606,
      "##ያያዘ": 6607,
      "##ኞችን": 6608,
      "እንደነበር": 6609,
      "##ይታ": 6610,
      "..": 6611,
      "##ክልሉ": 6612,
      "ተነ": 6613,
      "##ወለ": 6614,
      "##ስቱ": 6615,
      "ማግኘት": 6616,
      "##oo": 6617,
      "መረጃዎች": 6618,
      "ጥላ": 6619,
      "##ገዋል": 6620,
      "##ኛውን": 6621,
      "ፍላጎት": 6622,
      "##ጭር": 6623,
      "ትዕ": 6624,
      "ዕለት": 6625,
      "##ችለው": 6626,
      "ተሳ": 6627,
      "ፈቃድ": 6628,
      "##ዳሚ": 6629,
      "##ጦር": 6630,
      "ፕሮጀ": 6631,
      "ይፈ": 6632,
      "##ንቅ": 6633,
      "##ረታዊ": 6634,
      "##መደ": 6635,
      "##ዲት": 6636,
      "##ur": 6637,
      "በሚያ": 6638,
      "አዲሱ": 6639,
      "##ጀመረ": 6640,
      "ሰልፍ": 6641,
      "ሰባት": 6642,
      "##መጥ": 6643,
      "##ጠኝ": 6644,
      "ክስ": 6645,
      "አቅም": 6646,
      "ወይስ": 6647,
      "ዘገባ": 6648,
      "ምርጥ": 6649,
      "ማንም": 6650,
      "Ju": 6651,
      "##ለቀ": 6652,
      "##ሎስ": 6653,
      "አይችልም": 6654,
      "##ሕአዴግ": 6655,
      "ጉዳዩ": 6656,
      "##ዳደ": 6657,
      "##ሬሽን": 6658,
      "ታሪካ": 6659,
      "በኦሮ": 6660,
      "ገቢ": 6661,
      "##ማሌ": 6662,
      "ባለቤት": 6663,
      "##ዱስት": 6664,
      "የመጨረሻ": 6665,
      "##id": 6666,
      "ነጥብ": 6667,
      "ውጪ": 6668,
      "ኢትዮ": 6669,
      "ትግራይ": 6670,
      "መፈ": 6671,
      "ዓይ": 6672,
      "ሆይ": 6673,
      "ጦር": 6674,
      "ወዘ": 6675,
      "ዮሐ": 6676,
      "አለም": 6677,
      "##ራም": 6678,
      "##ቧል": 6679,
      "የቴ": 6680,
      "##ጤና": 6681,
      "በቂ": 6682,
      "##ከረ": 6683,
      "##ነቶች": 6684,
      "ጥበብ": 6685,
      "አልነበረ": 6686,
      "ከታ": 6687,
      "##ቦችን": 6688,
      "ከላይ": 6689,
      "##መለከት": 6690,
      "ትርጉም": 6691,
      "ትንሽ": 6692,
      "ልም": 6693,
      "##ደሰ": 6694,
      "##ልስ": 6695,
      "##ቅርብ": 6696,
      "##ፖሊ": 6697,
      "በታች": 6698,
      "የተዘጋጀ": 6699,
      "##ation": 6700,
      "ዳር": 6701,
      "መልክ": 6702,
      "እስኪ": 6703,
      "ባሕ": 6704,
      "##BC": 6705,
      "እግር": 6706,
      "ህገ": 6707,
      "መነሻ": 6708,
      "የሽ": 6709,
      "##ውሮፓ": 6710,
      "##ውስ": 6711,
      "ደብዳቤ": 6712,
      "ኦርቶዶክስ": 6713,
      "##il": 6714,
      "ተከትሎ": 6715,
      "##ባባይ": 6716,
      "ንብረት": 6717,
      "የዶ": 6718,
      "##ውጣት": 6719,
      "##ter": 6720,
      "የተቃ": 6721,
      "##ሩም": 6722,
      "የሚሉ": 6723,
      "##ሸት": 6724,
      "on": 6725,
      "##ከረም": 6726,
      "##ፁዕ": 6727,
      "ይኖ": 6728,
      "##ቤቱ": 6729,
      "ልጆ": 6730,
      "ሱዳን": 6731,
      "ፓትርያ": 6732,
      "አላቸው": 6733,
      "##ፈልጋ": 6734,
      "እያሉ": 6735,
      "የ2": 6736,
      "##ቡን": 6737,
      "ምሁ": 6738,
      "ዝግጅት": 6739,
      "ጥር": 6740,
      "ቀላል": 6741,
      "የለውም": 6742,
      "ዳይ": 6743,
      "##ነኛ": 6744,
      "22": 6745,
      "##ችኋ": 6746,
      "ግልጽ": 6747,
      "ማር": 6748,
      "የኢን": 6749,
      "ማለ": 6750,
      "አንዳን": 6751,
      "መግባ": 6752,
      "##ከታተ": 6753,
      "የተሻለ": 6754,
      "##መንግ": 6755,
      "የቻ": 6756,
      "##ot": 6757,
      "##ዊት": 6758,
      "##ንባ": 6759,
      "##ሆንም": 6760,
      "ወራት": 6761,
      "##ረቱ": 6762,
      "እናም": 6763,
      "##ናቀ": 6764,
      "##ጣጫ": 6765,
      "##ናን": 6766,
      "ጥቂት": 6767,
      "##ታን": 6768,
      "##መለካ": 6769,
      "ፈተና": 6770,
      "መሣ": 6771,
      "##ናይት": 6772,
      "ወረዳ": 6773,
      "##ሁት": 6774,
      "ክፍሎች": 6775,
      "የጠ": 6776,
      "አስተዋ": 6777,
      "የሕዝብ": 6778,
      "##ሞን": 6779,
      "##ነበ": 6780,
      "ለዘ": 6781,
      "ሰነድ": 6782,
      "ጉድ": 6783,
      "##ጀመር": 6784,
      "##ንጉ": 6785,
      "እንዲሆን": 6786,
      "መቼ": 6787,
      "##ስቶ": 6788,
      "ዘርፍ": 6789,
      "ላለ": 6790,
      "##ጠበቀ": 6791,
      "ለማሳ": 6792,
      "##ፋል": 6793,
      "ታዲያ": 6794,
      "ምግብ": 6795,
      "##ሊክ": 6796,
      "ምንጭ": 6797,
      "በስተ": 6798,
      "አድርገው": 6799,
      "ታው": 6800,
      "##ቻቸውን": 6801,
      "የድር": 6802,
      "ስደ": 6803,
      "ክፍለ": 6804,
      "ወዘተ": 6805,
      "አጋጣሚ": 6806,
      "##ንካራ": 6807,
      "##ሳቢ": 6808,
      "ሥልጣን": 6809,
      "እዩ": 6810,
      "##ac": 6811,
      "##ግዚአብሄር": 6812,
      "##ንስት": 6813,
      "ስታ": 6814,
      "በመንግ": 6815,
      "##በልጥ": 6816,
      "ኖሮ": 6817,
      "##ገሩ": 6818,
      "##ከላዊ": 6819,
      "##መናዊ": 6820,
      "##ከባ": 6821,
      "##ሌክት": 6822,
      "##ሌት": 6823,
      "ሲኖዶስ": 6824,
      "##ነጋገር": 6825,
      "ንግድ": 6826,
      "ያለበት": 6827,
      "እንደም": 6828,
      "##ክሮ": 6829,
      "ውሃ": 6830,
      "ሰለ": 6831,
      "De": 6832,
      "ጤና": 6833,
      "##ዘው": 6834,
      "ከዚያም": 6835,
      "##ተኝነት": 6836,
      "ባህል": 6837,
      "##መቱ": 6838,
      "##ልጣናት": 6839,
      "##መነ": 6840,
      "##ስተኛ": 6841,
      "ዞን": 6842,
      "ያስፈልጋል": 6843,
      "##ቆጣጠር": 6844,
      "ቴክኖሎጂ": 6845,
      "##ቀን": 6846,
      "##ንቲ": 6847,
      "##ረጋገጥ": 6848,
      "ተጋ": 6849,
      "ተወካ": 6850,
      "ጭምር": 6851,
      "ፕሬዝ": 6852,
      "##ካባቢው": 6853,
      "ሰፊ": 6854,
      "##ሀት": 6855,
      "##ጋና": 6856,
      "ድምፅ": 6857,
      "##ዳቸው": 6858,
      "##ንቃ": 6859,
      "##ለኛል": 6860,
      "ሙስሊ": 6861,
      "##ዮር": 6862,
      "##መዘ": 6863,
      "ከባድ": 6864,
      "##ፊዎች": 6865,
      "መፍትሄ": 6866,
      "##ሷል": 6867,
      "##ቀዋል": 6868,
      "##በራ": 6869,
      "አለማ": 6870,
      "የድ": 6871,
      "የአማርኛ": 6872,
      "##ካሄደው": 6873,
      "ሆኗል": 6874,
      "ጥቅ": 6875,
      "ያን": 6876,
      "ዕው": 6877,
      "ሠራ": 6878,
      "##ገለጸ": 6879,
      "ብል": 6880,
      "ወገን": 6881,
      "አልፎ": 6882,
      "##ሴቶች": 6883,
      "##ለያየ": 6884,
      "##ማማ": 6885,
      "መክ": 6886,
      "ከው": 6887,
      "##ባቸውን": 6888,
      "##ዴራል": 6889,
      "ናይ": 6890,
      "መኖር": 6891,
      "##ፈልግ": 6892,
      "##ጀም": 6893,
      "ዝርዝር": 6894,
      "በዝ": 6895,
      "ኦሮሞ": 6896,
      "##ዥን": 6897,
      "ግንባር": 6898,
      "ትምህር": 6899,
      "2016": 6900,
      "ድል": 6901,
      "የሚጠ": 6902,
      "ዋንጫ": 6903,
      "ጋዜጠኛ": 6904,
      "ደረ": 6905,
      "##ጻሚ": 6906,
      "ተመሳሳይ": 6907,
      "ህዝቡ": 6908,
      "##መሩ": 6909,
      "##ለጋ": 6910,
      "##ቲት": 6911,
      "ኢኮኖሚ": 6912,
      "ዳይሬ": 6913,
      "ሕዝቡ": 6914,
      "አለኝ": 6915,
      "ተግባራዊ": 6916,
      "##ዱስትሪ": 6917,
      "##ለበት": 6918,
      "##ተርኔት": 6919,
      "##ቀበል": 6920,
      "ከጥ": 6921,
      "ትክክለ": 6922,
      "##ሟል": 6923,
      "መስጠት": 6924,
      "##ነር": 6925,
      "##ጌል": 6926,
      "##ልማት": 6927,
      "27": 6928,
      "በመሆኑም": 6929,
      "ስህ": 6930,
      "##ዋት": 6931,
      "ደቂ": 6932,
      "ይመስላል": 6933,
      "##ጣይ": 6934,
      "ሜትር": 6935,
      "የበለጠ": 6936,
      "ሁለተኛ": 6937,
      "የሶ": 6938,
      "ከአንድ": 6939,
      "ራሱን": 6940,
      "ሊግ": 6941,
      "##ራይ": 6942,
      "ቢያ": 6943,
      "ደስታ": 6944,
      "ተወላ": 6945,
      "##ሳስ": 6946,
      "##ጊዜው": 6947,
      "##ናንተ": 6948,
      "##ቀድ": 6949,
      "ደሳ": 6950,
      "ተሸ": 6951,
      "##ደርገው": 6952,
      "##ረኛ": 6953,
      "ልማ": 6954,
      "##ጥነት": 6955,
      "መጨረሻ": 6956,
      "ወገኖች": 6957,
      "ምክትል": 6958,
      "##ዩት": 6959,
      "##ገራቸው": 6960,
      "ግዜ": 6961,
      "26": 6962,
      "ጠንካራ": 6963,
      "በቃ": 6964,
      "##ቴን": 6965,
      "##ደጋጋሚ": 6966,
      "##ናይትድ": 6967,
      "##ባቸዋል": 6968,
      "አመራሮች": 6969,
      "##ታችንን": 6970,
      "##ስቲ": 6971,
      "##ህዴ": 6972,
      "ከቀ": 6973,
      "ወቅታዊ": 6974,
      "አመታት": 6975,
      "##ቋቋ": 6976,
      "እንግዲህ": 6977,
      "ደሳለኝ": 6978,
      "ገልጸዋል": 6979,
      "በእርግጥ": 6980,
      "ፎቶ": 6981,
      "##ብሪካ": 6982,
      "##ዋቂ": 6983,
      "መንፈሳዊ": 6984,
      "##ላቀ": 6985,
      "ብርሃ": 6986,
      "ይኸ": 6987,
      "ስቴ": 6988,
      "ሰዎችን": 6989,
      "የይ": 6990,
      "ሚና": 6991,
      "##ላለፍ": 6992,
      "##ላቸውን": 6993,
      "ሃይማኖት": 6994,
      "እሱ": 6995,
      "አባት": 6996,
      "ለሕ": 6997,
      "ምሳሌ": 6998,
      "አቅጣጫ": 6999,
      "##ርቅ": 7000,
      "የዛሬ": 7001,
      "ክለ": 7002,
      "ወዲህ": 7003,
      "##ካኤል": 7004,
      "##ብርሃ": 7005,
      "##esday": 7006,
      "to": 7007,
      "የመንግሥት": 7008,
      "##ጠኞች": 7009,
      "ይወ": 7010,
      "##ያንዳንዱ": 7011,
      "በገ": 7012,
      "እንድት": 7013,
      "መልዕክት": 7014,
      "ደቡብ": 7015,
      "ለሌ": 7016,
      "አመለካ": 7017,
      "በተጨማሪም": 7018,
      "በወቅቱ": 7019,
      "##ከላከል": 7020,
      "ባለፉት": 7021,
      "በዚሁ": 7022,
      "##መልከት": 7023,
      "ቅዱሳን": 7024,
      "በመሆን": 7025,
      "ለመፍ": 7026,
      "##ናገሩት": 7027,
      "ከህ": 7028,
      "የሚወ": 7029,
      "##ቱት": 7030,
      "ብሔር": 7031,
      "ፕሮፌ": 7032,
      "##መም": 7033,
      "ስነ": 7034,
      "##ገም": 7035,
      "##ኘው": 7036,
      "##ስተር": 7037,
      "የሚተ": 7038,
      "የሚባል": 7039,
      "''": 7040,
      "ተቋም": 7041,
      "ሃገር": 7042,
      "##ፉን": 7043,
      "in": 7044,
      "የጀ": 7045,
      "ብሏል": 7046,
      "የሚገባ": 7047,
      "##ማሽ": 7048,
      "##በቅ": 7049,
      "ሃገ": 7050,
      "##ያንስ": 7051,
      "ግራ": 7052,
      "ምናል": 7053,
      "አግኝ": 7054,
      "##ካን": 7055,
      "##ረር": 7056,
      "##ድረስ": 7057,
      "ነውና": 7058,
      "አቋም": 7059,
      "##ዋለሁ": 7060,
      "ባለሥ": 7061,
      "የተሰጠ": 7062,
      "##ዮርጊ": 7063,
      "እኔም": 7064,
      "ዉስጥ": 7065,
      "##ህነት": 7066,
      "በጋራ": 7067,
      "ምናልባት": 7068,
      "ራስ": 7069,
      "ያደረገ": 7070,
      "ከኢ": 7071,
      "ልዩነት": 7072,
      "ፖለቲካዊ": 7073,
      "ነፃነት": 7074,
      "##ራንስ": 7075,
      "##ብዛ": 7076,
      "##ከው": 7077,
      "60": 7078,
      "የሐ": 7079,
      "የኤርትራ": 7080,
      "##ሁድ": 7081,
      "##ባይል": 7082,
      "ዮሐንስ": 7083,
      "የቁ": 7084,
      "የተደረገ": 7085,
      "##ርላማ": 7086,
      "##ሥር": 7087,
      "ገበያ": 7088,
      "የ1": 7089,
      "##ab": 7090,
      "ወስ": 7091,
      "##ጹም": 7092,
      "##ቀርቡ": 7093,
      "Wed": 7094,
      "አማራጭ": 7095,
      "የኢትዮጵያን": 7096,
      "መመሪያ": 7097,
      "እነዚህን": 7098,
      "ሁሉንም": 7099,
      "ዕድል": 7100,
      "መጀመሪያ": 7101,
      "ጠይ": 7102,
      "ሞት": 7103,
      "##ሕዶ": 7104,
      "##ፈጸም": 7105,
      "##ሮፕ": 7106,
      "በዕ": 7107,
      "##ሖዋ": 7108,
      "መከራ": 7109,
      "##ዎት": 7110,
      "##ቅናቄ": 7111,
      "አድማ": 7112,
      "##ደራል": 7113,
      "ከት": 7114,
      "##ረታ": 7115,
      "መኮ": 7116,
      "ባለመ": 7117,
      "##ትስ": 7118,
      "ቤተክርስቲያን": 7119,
      "የተለየ": 7120,
      "##ow": 7121,
      "ሰራ": 7122,
      "##ቶቻችን": 7123,
      "ግዴ": 7124,
      "##ሄዱ": 7125,
      "የምታ": 7126,
      "በሌሎች": 7127,
      "እንደገና": 7128,
      "##ድና": 7129,
      "##ስቡ": 7130,
      "##ላፊነት": 7131,
      "መስመር": 7132,
      "##ዋርያ": 7133,
      "##መንት": 7134,
      "ከብ": 7135,
      "##ድዮ": 7136,
      "##ተናል": 7137,
      "ነዋሪዎች": 7138,
      "መረ": 7139,
      "##ለል": 7140,
      "በራሱ": 7141,
      "##ሳው": 7142,
      "##ቃቸው": 7143,
      "##ሆነው": 7144,
      "##ጠቀሙ": 7145,
      "ማየት": 7146,
      "ውድድር": 7147,
      "ሲባል": 7148,
      "ቢሊዮን": 7149,
      "እኩል": 7150,
      "Com": 7151,
      "##ቋቋም": 7152,
      "በማን": 7153,
      "የእኛ": 7154,
      "ተጫዋ": 7155,
      "##ርሻ": 7156,
      "ሀብት": 7157,
      "##ሰጡ": 7158,
      "##ንግሊዝ": 7159,
      "ዘመቻ": 7160,
      "የነበሩት": 7161,
      "ግለሰቦች": 7162,
      "28": 7163,
      "ወደፊት": 7164,
      "የሚሆኑ": 7165,
      "ከል": 7166,
      "ታሪካዊ": 7167,
      "አገልግሎ": 7168,
      "ሪፖር": 7169,
      "ዳን": 7170,
      "የጋ": 7171,
      "መፍትሔ": 7172,
      "##ጨዋ": 7173,
      "ወጪ": 7174,
      "የነበረውን": 7175,
      "##ናይ": 7176,
      "ሆቴ": 7177,
      "የዩ": 7178,
      "##መዋል": 7179,
      "ማንኛውም": 7180,
      "በፈ": 7181,
      "የሚታወ": 7182,
      "ቦታዎች": 7183,
      "##ዳማ": 7184,
      "##በሻ": 7185,
      "መንግሥታት": 7186,
      "##nesday": 7187,
      "ከሌሎች": 7188,
      "Wednesday": 7189,
      "ብት": 7190,
      "##ሳኝ": 7191,
      "ሊቃ": 7192,
      "##ቀፍ": 7193,
      "አለባቸው": 7194,
      "የሚያሳ": 7195,
      "ከሚያ": 7196,
      "##ረግ": 7197,
      "##ess": 7198,
      "##ሽቱ": 7199,
      "የጉ": 7200,
      "በቀላሉ": 7201,
      "##ቷን": 7202,
      "ችሎ": 7203,
      "ዜናዊ": 7204,
      "##ገነባ": 7205,
      "##ህር": 7206,
      "በደቡብ": 7207,
      "ጠቃሚ": 7208,
      "##ለኝም": 7209,
      "ብፁዕ": 7210,
      "የሚከተ": 7211,
      "##አል": 7212,
      "ርዕስ": 7213,
      "በቤተ": 7214,
      "ምርት": 7215,
      "ለሰው": 7216,
      "##ረጋግ": 7217,
      "የመጀመሪያው": 7218,
      "የደረ": 7219,
      "ተጠያቂ": 7220,
      "መብቶች": 7221,
      "##ct": 7222,
      "ፖሊሲ": 7223,
      "የተባለው": 7224,
      "##ለማርያም": 7225,
      "ድምጽ": 7226,
      "##ኛሉ": 7227,
      "ግድብ": 7228,
      "ዴሞክራሲያዊ": 7229,
      "ዘዴ": 7230,
      "መስከረም": 7231,
      "ምንድን": 7232,
      "##ነሣ": 7233,
      "##ሽት": 7234,
      "ቴሌ": 7235,
      "##ካሪ": 7236,
      "ምድ": 7237,
      "አስመል": 7238,
      "አስተሳሰብ": 7239,
      "የጦር": 7240,
      "##ገማ": 7241,
      "Feb": 7242,
      "ምርመራ": 7243,
      "አጀ": 7244,
      "##ዝም": 7245,
      "2009": 7246,
      "##iv": 7247,
      "የገንዘብ": 7248,
      "ዓም": 7249,
      "##በረታ": 7250,
      "##ወጣው": 7251,
      "##ዳሜ": 7252,
      "በአጠቃላይ": 7253,
      "አብሮ": 7254,
      "##tt": 7255,
      "በነበረ": 7256,
      "ጽሑፍ": 7257,
      "የዲ": 7258,
      "##ሎቹ": 7259,
      "##ንክ": 7260,
      "##ናገራ": 7261,
      "##ቁም": 7262,
      "ታስ": 7263,
      "ንቅናቄ": 7264,
      "##ግባብ": 7265,
      "##ኝም": 7266,
      "##ዋሳ": 7267,
      "##በዋል": 7268,
      "ቡና": 7269,
      "ሐሳብ": 7270,
      "በኃ": 7271,
      "ለማን": 7272,
      "መቅ": 7273,
      "በመጨረሻ": 7274,
      "የኢህአዴግ": 7275,
      "ሪፖርት": 7276,
      "አካባቢዎች": 7277,
      "እውነተኛ": 7278,
      "የደቡብ": 7279,
      "##ራሪ": 7280,
      "ራሱ": 7281,
      "ሥርዓ": 7282,
      "##ሾች": 7283,
      "##ዕኖ": 7284,
      "##ታዎች": 7285,
      "##ኒያ": 7286,
      "ማረ": 7287,
      "በ200": 7288,
      "እርስ": 7289,
      "በኤ": 7290,
      "29": 7291,
      "##ሊት": 7292,
      "ፌዴ": 7293,
      "ማንነት": 7294,
      "##ናፊ": 7295,
      "##ረኞች": 7296,
      "##ርም": 7297,
      "በአን": 7298,
      "ጠብ": 7299,
      "በመጀመሪያ": 7300,
      "መሆናቸውን": 7301,
      "##ምጣት": 7302,
      "ዝቅ": 7303,
      "ሰበር": 7304,
      "##ስፒ": 7305,
      "ጌታቸው": 7306,
      "ለመስጠት": 7307,
      "የሆኑት": 7308,
      "ሥነ": 7309,
      "##ለስ": 7310,
      "##...": 7311,
      "ምእ": 7312,
      "##ህም": 7313,
      "መጽሐ": 7314,
      "መኪና": 7315,
      "እንደሌ": 7316,
      "ዛሬም": 7317,
      "ማለትም": 7318,
      "of": 7319,
      "የዜ": 7320,
      "ሀገራት": 7321,
      "ደቂቃ": 7322,
      "ፋብሪካ": 7323,
      "ቃላት": 7324,
      "የሲ": 7325,
      "በውጭ": 7326,
      "##መዝ": 7327,
      "የዓ": 7328,
      "እንዲፈ": 7329,
      "##ዮርጊስ": 7330,
      "##መኑ": 7331,
      "ታሪ": 7332,
      "##ዳም": 7333,
      "##ላንድ": 7334,
      "##ዕት": 7335,
      "ይገኛሉ": 7336,
      "ብርሃን": 7337,
      "ሚሊ": 7338,
      "በሶ": 7339,
      "በተመ": 7340,
      "አልነበረም": 7341,
      "ፍሬ": 7342,
      "እንድን": 7343,
      "የሚገኘው": 7344,
      "እነርሱ": 7345,
      "ግርማ": 7346,
      "ህወ": 7347,
      "ማክ": 7348,
      "የሕግ": 7349,
      "ያቀረ": 7350,
      "አዝ": 7351,
      "##ሪት": 7352,
      "ጥና": 7353,
      "በብዙ": 7354,
      "መፅ": 7355,
      "የዘር": 7356,
      "በከፍተኛ": 7357,
      "ይበ": 7358,
      "##ሰቢያ": 7359,
      "##ላቅ": 7360,
      "ሊቀመን": 7361,
      "##ent": 7362,
      "ቅን": 7363,
      "ከተሞች": 7364,
      "##ታችሁ": 7365,
      "##ጠይቅ": 7366,
      "የኢኮኖሚ": 7367,
      "የጤና": 7368,
      "Febr": 7369,
      "##ጅቱ": 7370,
      "February": 7371,
      "##ጧል": 7372,
      "የሰላም": 7373,
      "ወይንም": 7374,
      "##ረዱ": 7375,
      "የመጽሐፍ": 7376,
      "ካር": 7377,
      "የኃ": 7378,
      "በግልጽ": 7379,
      "በተያያዘ": 7380,
      "ሰይ": 7381,
      "በምን": 7382,
      "ኤፍ": 7383,
      "ሳምን": 7384,
      "##ፈረ": 7385,
      "##ድሮስ": 7386,
      "ከምሽቱ": 7387,
      "ተሳት": 7388,
      "ይታወቃል": 7389,
      "ቀጠ": 7390,
      "ይመስለኛል": 7391,
      "ዲሞክራሲ": 7392,
      "ጳው": 7393,
      "መዝሙሮች": 7394,
      "ኑሮ": 7395,
      "ሰሞ": 7396,
      "ቢያንስ": 7397,
      "ስድስት": 7398,
      "አይመስ": 7399,
      "Nov": 7400,
      "##ፈለገ": 7401,
      "ደብረ": 7402,
      "ደህንነት": 7403,
      "መቆ": 7404,
      "መልእክት": 7405,
      "መጻሕ": 7406,
      "የማስ": 7407,
      "##ost": 7408,
      "ስለተ": 7409,
      "100": 7410,
      "ደመ": 7411,
      "##ስተካ": 7412,
      "##ናችን": 7413,
      "##ቃሽ": 7414,
      "##ነህ": 7415,
      "መሳሪያ": 7416,
      "ተዋሕዶ": 7417,
      "##ግን": 7418,
      "##ጠዋል": 7419,
      "የጸ": 7420,
      "በአማራ": 7421,
      "the": 7422,
      "ልን": 7423,
      "ባህር": 7424,
      "##ልበት": 7425,
      "በመቀ": 7426,
      "በረከት": 7427,
      "ያላቸውን": 7428,
      "##ቀሳ": 7429,
      "##ጠናቀ": 7430,
      "ክፉ": 7431,
      "##ለቲከ": 7432,
      "እንደሚችል": 7433,
      "Jan": 7434,
      "ይቀ": 7435,
      "ሀሳብ": 7436,
      "ለራ": 7437,
      "አብዮ": 7438,
      "##ጦች": 7439,
      "##ጠነ": 7440,
      "የግለ": 7441,
      "በቀለ": 7442,
      "ሙዚቃ": 7443,
      "ያደረገው": 7444,
      "አይቻ": 7445,
      "ክፍያ": 7446,
      "##ታም": 7447,
      "ህዝቦች": 7448,
      "##ለጥ": 7449,
      "##ባር": 7450,
      "ክቡር": 7451,
      "የቀረበ": 7452,
      "መወ": 7453,
      "##ፋን": 7454,
      "##ባይነት": 7455,
      "##ሞላ": 7456,
      "##መለሱ": 7457,
      "እርዳታ": 7458,
      "##ፈጠረው": 7459,
      "##ne": 7460,
      "ተን": 7461,
      "##ድቅ": 7462,
      "አስተያየ": 7463,
      "ቁር": 7464,
      "##ጀመረው": 7465,
      "##50": 7466,
      "ምዕራፍ": 7467,
      "##ሴት": 7468,
      "አንቀጽ": 7469,
      "የተባበሩት": 7470,
      "ኃይለ": 7471,
      "በቅርብ": 7472,
      "ስብከት": 7473,
      "የሚገኝ": 7474,
      "ሕይወ": 7475,
      "##ጿል": 7476,
      "##ጫው": 7477,
      "##ፋር": 7478,
      "ምሥ": 7479,
      "ፕሮፌሰር": 7480,
      "አላማ": 7481,
      "ተገኝ": 7482,
      "ሁለቱ": 7483,
      "ተጽ": 7484,
      "አንድም": 7485,
      "ስርጭት": 7486,
      "ድርጊት": 7487,
      "##ዎቹን": 7488,
      "##፡፡": 7489,
      "##ምሌ": 7490,
      "ጨዋታዎች": 7491,
      "##ደድ": 7492,
      "እናት": 7493,
      "##ረፍ": 7494,
      "።»": 7495,
      "##ገራሚ": 7496,
      "ወርቅ": 7497,
      "ተቀብ": 7498,
      "ማስታወቂያ": 7499,
      "##ቁን": 7500,
      "##ly": 7501,
      "የመሰ": 7502,
      "የቅርብ": 7503,
      "ሚንስት": 7504,
      "የሚኖሩ": 7505,
      "መሸ": 7506,
      "##ሉትን": 7507,
      "##ቻለ": 7508,
      "##ፏል": 7509,
      "##ሻሻል": 7510,
      "አጀንዳ": 7511,
      "በበኩ": 7512,
      "ጠየ": 7513,
      "##ፈልገው": 7514,
      "##--": 7515,
      "ባለሙያዎች": 7516,
      "ሜዳ": 7517,
      "በጋ": 7518,
      "##ራችን": 7519,
      "የሚችሉ": 7520,
      "የአየር": 7521,
      "##ሬን": 7522,
      "አስፈጻሚ": 7523,
      "##በስ": 7524,
      "ተደርጎ": 7525,
      "ትና": 7526,
      "##ጉት": 7527,
      "##ice": 7528,
      "ሀብ": 7529,
      "##ቀደ": 7530,
      "##ሰጠው": 7531,
      "በመጠቀም": 7532,
      "##ሴን": 7533,
      "ተስፋዬ": 7534,
      "##ሬዎች": 7535,
      "##ጊያ": 7536,
      "የዳ": 7537,
      "ብላ": 7538,
      "ፍር": 7539,
      "ይባላል": 7540,
      "አገዛዝ": 7541,
      "##ጨት": 7542,
      "እንደማ": 7543,
      "ህብረት": 7544,
      "የማያ": 7545,
      "ሊቀመንበር": 7546,
      "ሙከራ": 7547,
      "አሠ": 7548,
      "##ራክ": 7549,
      "##ሊን": 7550,
      "ኮሚሽን": 7551,
      "የሚሆን": 7552,
      "##ባረ": 7553,
      "በፌ": 7554,
      "##ሻገር": 7555,
      "ስፍራ": 7556,
      "##ዳና": 7557,
      "##ጫኑ": 7558,
      "ቀድሞ": 7559,
      "ይበልጥ": 7560,
      "በተደጋጋሚ": 7561,
      "th": 7562,
      "ብሄራዊ": 7563,
      "##ore": 7564,
      "ቆይታ": 7565,
      "አዋጁ": 7566,
      "የኦሮሚያ": 7567,
      "የቤት": 7568,
      "##ምላክ": 7569,
      "ትክክለኛ": 7570,
      "##ሌክትሪክ": 7571,
      "ለስ": 7572,
      "##ቃሉ": 7573,
      "##በሳ": 7574,
      "ይቅርታ": 7575,
      "##ብረተሰቡ": 7576,
      "ጎንደር": 7577,
      "ስፖርት": 7578,
      "አና": 7579,
      "##ጋቢት": 7580,
      "ሳያ": 7581,
      "##ብቅ": 7582,
      "November": 7583,
      "በሐ": 7584,
      "##ቃይ": 7585,
      "ጳውሎስ": 7586,
      "አሰራ": 7587,
      "##ፈፀ": 7588,
      "ሃይማኖ": 7589,
      "ተል": 7590,
      "አስገራሚ": 7591,
      "ቁልፍ": 7592,
      "ስርዓ": 7593,
      "January": 7594,
      "##ከን": 7595,
      "ጉብኝ": 7596,
      "ድርሻ": 7597,
      "##ደስ": 7598,
      "የበላይነት": 7599,
      "Ab": 7600,
      "##ሉበት": 7601,
      "የከተማ": 7602,
      "##ገኙት": 7603,
      "Re": 7604,
      "የተመ": 7605,
      "ትናንት": 7606,
      "ተጠር": 7607,
      "ሃይል": 7608,
      "አለቃ": 7609,
      "ተቀባይነት": 7610,
      "የሆነውን": 7611,
      "ተገል": 7612,
      "እድል": 7613,
      "አሰፋ": 7614,
      "##ለቅ": 7615,
      "ሰሞኑን": 7616,
      "መገናኛ": 7617,
      "ርእ": 7618,
      "አጠቃላይ": 7619,
      "ምኒ": 7620,
      "ከአዲስ": 7621,
      "ለአንድ": 7622,
      "##የሩ": 7623,
      "ኪሎ": 7624,
      "##ዴሞክራሲ": 7625,
      "ልት": 7626,
      "EBC": 7627,
      "በኮ": 7628,
      "አስመልክቶ": 7629,
      "….": 7630,
      "አጣ": 7631,
      "እስክ": 7632,
      "የያዘ": 7633,
      "##ፍሪቃ": 7634,
      "ለዚህም": 7635,
      "መና": 7636,
      "የሚሉት": 7637,
      "##ላቸውም": 7638,
      "ገፅ": 7639,
      "ብን": 7640,
      "##ላካ": 7641,
      "ማህበረሰብ": 7642,
      "እዚያ": 7643,
      "አገራት": 7644,
      "##ag": 7645,
      "ተወካዮች": 7646,
      "እርስዎ": 7647,
      "ሚካኤል": 7648,
      "አቋ": 7649,
      "ሽብር": 7650,
      "ዳንኤል": 7651,
      "መዘ": 7652,
      "እነሱ": 7653,
      "##ome": 7654,
      "መስተ": 7655,
      "ሰም": 7656,
      "##በሌ": 7657,
      "ግምገማ": 7658,
      "##ጡን": 7659,
      "ህይወ": 7660,
      "##ጓዝ": 7661,
      "##ደረጃ": 7662,
      "##ኬት": 7663,
      "አዳዲስ": 7664,
      "ማወቅ": 7665,
      "##ልህ": 7666,
      "የልማት": 7667,
      "አባቶች": 7668,
      "##ብይ": 7669,
      "መከላከያ": 7670,
      "በሰው": 7671,
      "አመለካከት": 7672,
      "ጊዮርጊስ": 7673,
      "የምግብ": 7674,
      "ምህ": 7675,
      "አልባ": 7676,
      "የእርስዎ": 7677,
      "ኮን": 7678,
      "##ምሩ": 7679,
      "የፊ": 7680,
      "##ብሮ": 7681,
      "ታይ": 7682,
      "መጠየ": 7683,
      "አጠ": 7684,
      "ቀረ": 7685,
      "እባ": 7686,
      "##ኒኬ": 7687,
      "ሥጋ": 7688,
      "ለሰ": 7689,
      "ከሕ": 7690,
      "ኃላፊነት": 7691,
      "##ባችን": 7692,
      "ጉባዔ": 7693,
      "ምልክት": 7694,
      "##ላለም": 7695,
      "የሌለው": 7696,
      "##ዎስ": 7697,
      "መሐ": 7698,
      "ጎን": 7699,
      "ቅድስት": 7700,
      "##ባባ": 7701,
      "እነሆ": 7702,
      "መጠቀም": 7703,
      "ማድረ": 7704,
      "እንደዚህ": 7705,
      "ኃይሎች": 7706,
      "ዳይሬክተር": 7707,
      "ስህተት": 7708,
      "የግብ": 7709,
      "በይፋ": 7710,
      "የተመሰ": 7711,
      "##ርኩ": 7712,
      "##እምሮ": 7713,
      "##ላችንም": 7714,
      "አዘጋጅ": 7715,
      "ትች": 7716,
      "##ቀሰ": 7717,
      "አሳይ": 7718,
      "##ዛቤ": 7719,
      "በኦሮሚያ": 7720,
      "##ጾች": 7721,
      "##ሊና": 7722,
      "##ቃቤ": 7723,
      "እህ": 7724,
      "##ሰዋል": 7725,
      "የተባለ": 7726,
      "በተመሳሳይ": 7727,
      "ለት": 7728,
      "አንፃ": 7729,
      "የተሳ": 7730,
      "##ኒት": 7731,
      "##ቪዥን": 7732,
      "##ውው": 7733,
      "መራ": 7734,
      "ሆስፒ": 7735,
      "##ጀመርያ": 7736,
      "##ላትን": 7737,
      "የረ": 7738,
      "##ሠሩ": 7739,
      "የደረሰ": 7740,
      ":-": 7741,
      "000": 7742,
      "ታማ": 7743,
      "አዛ": 7744,
      "ተዘ": 7745,
      "##ምራት": 7746,
      "##ዷል": 7747,
      ")፣": 7748,
      "ፕሬዝዳንት": 7749,
      "##ig": 7750,
      "ሊያስ": 7751,
      "ረገድ": 7752,
      "##ዬን": 7753,
      "ስልጠና": 7754,
      "በቁጥጥር": 7755,
      "##ፕሎ": 7756,
      "##ቦና": 7757,
      "ርዕሰ": 7758,
      "ፖለቲከ": 7759,
      "##ወገድ": 7760,
      "##ፃነት": 7761,
      "##ሆናቸው": 7762,
      "ጥቁር": 7763,
      "##ጉን": 7764,
      "##ዳዳሪ": 7765,
      "##ሰል": 7766,
      "ካሳ": 7767,
      "መሀ": 7768,
      "፤››": 7769,
      "ዕድሜ": 7770,
      "ግዛት": 7771,
      "##um": 7772,
      "የእኔ": 7773,
      "ኪዳን": 7774,
      "ህዝባዊ": 7775,
      "##ሽከር": 7776,
      "##ቢት": 7777,
      "##ብብር": 7778,
      "##መናን": 7779,
      "ዘመናዊ": 7780,
      "##ውቅም": 7781,
      "በመስጠት": 7782,
      "ድራ": 7783,
      "##ክሲ": 7784,
      "##ኖረ": 7785,
      "አታ": 7786,
      "አንዳር": 7787,
      "ተጠቅ": 7788,
      "የቡ": 7789,
      "##ce": 7790,
      "አስታወቀ": 7791,
      "##ስተዋ": 7792,
      "ወልደ": 7793,
      "ይዘው": 7794,
      "ስለመ": 7795,
      "##ውንም": 7796,
      "ማህበር": 7797,
      "##ut": 7798,
      "ህወሓት": 7799,
      "መንግስቱ": 7800,
      "በአሜሪካ": 7801,
      "ፊልም": 7802,
      "##ግባት": 7803,
      "ቅድሚያ": 7804,
      "ኢሳ": 7805,
      "ይናገራ": 7806,
      "##ፋቸው": 7807,
      "እኛም": 7808,
      "ያደርጋል": 7809,
      "##ስቡክ": 7810,
      "ወዲያ": 7811,
      "##ላቂ": 7812,
      "በሁለት": 7813,
      "##ቃን": 7814,
      "ይናገራሉ": 7815,
      "##ራፊ": 7816,
      "ማው": 7817,
      "##ሽኑ": 7818,
      "የአስቸኳይ": 7819,
      "##ቀጥል": 7820,
      "ቤተሰብ": 7821,
      "##ኩም": 7822,
      "##ለመ": 7823,
      "ይገል": 7824,
      "ካልተ": 7825,
      "ወላ": 7826,
      "የኔ": 7827,
      "##ካሂ": 7828,
      "የፋ": 7829,
      "ቪዲዮ": 7830,
      "##ቀመጥ": 7831,
      "ስልክ": 7832,
      "ተሰማ": 7833,
      "ወሳኝ": 7834,
      "##ፈጸመ": 7835,
      "##ሻል": 7836,
      "##ለዉ": 7837,
      "ክስተ": 7838,
      "ማእ": 7839,
      "##ሳሽ": 7840,
      "ሙስና": 7841,
      "##ጦታ": 7842,
      "የቦ": 7843,
      "##ኳር": 7844,
      "የመሳሰ": 7845,
      "##መለክ": 7846,
      "##ድያ": 7847,
      "አስኪያ": 7848,
      "እንዳለው": 7849,
      "In": 7850,
      "ምስክር": 7851,
      "ተባለ": 7852,
      "##ቸዉን": 7853,
      "##ንሲ": 7854,
      "ጠቅላላ": 7855,
      "##ገልግ": 7856,
      "ቴዎ": 7857,
      "##ዩም": 7858,
      "##ነታችን": 7859,
      "##ፈለግ": 7860,
      "እንግሊዝ": 7861,
      "##ገለጹ": 7862,
      "ጥራት": 7863,
      "##ዳው": 7864,
      "መስራት": 7865,
      "##ጠቁ": 7866,
      "##ይይ": 7867,
      "50": 7868,
      "##ራቢ": 7869,
      "በትክ": 7870,
      "ሁል": 7871,
      "##ገንባት": 7872,
      "##ik": 7873,
      "ሥላሴ": 7874,
      "የሰብዓዊ": 7875,
      "አይገባ": 7876,
      "በን": 7877,
      "ለማለት": 7878,
      "አገሪ": 7879,
      "ክብ": 7880,
      "አርበኞች": 7881,
      "ተመራ": 7882,
      "ጀርመን": 7883,
      "አለብን": 7884,
      "ያሉትን": 7885,
      "ቀጥሎ": 7886,
      "##ራቸውን": 7887,
      "##ፖሊስ": 7888,
      "##ኑት": 7889,
      "ሆቴል": 7890,
      "and": 7891,
      "የሚያደርጉ": 7892,
      "የሀገር": 7893,
      "##ንፃ": 7894,
      "ሕዝቦች": 7895,
      "እግ": 7896,
      "ለኢ": 7897,
      "ጀም": 7898,
      "መስፍን": 7899,
      "በሰላም": 7900,
      "ለፍ": 7901,
      "ግለሰብ": 7902,
      "አይቀር": 7903,
      "##ጣሉ": 7904,
      "ግዴታ": 7905,
      "የሰማ": 7906,
      "ዜጋ": 7907,
      "##በትና": 7908,
      "የፍት": 7909,
      "##ጌታ": 7910,
      "አሸናፊ": 7911,
      "##ከሩ": 7912,
      "##አዴን": 7913,
      "በዛሬ": 7914,
      "ፈጽ": 7915,
      "እሺ": 7916,
      "##ደበ": 7917,
      "እድሜ": 7918,
      "ስቴትስ": 7919,
      "ያሰ": 7920,
      "ኤል": 7921,
      "ያደረጉት": 7922,
      "እስራ": 7923,
      "ኅብረተሰብ": 7924,
      "ገባ": 7925,
      "##ልውና": 7926,
      "##ራቅ": 7927,
      "አይሆንም": 7928,
      "00": 7929,
      "##ኖራቸው": 7930,
      "##ፃናት": 7931,
      "አስቸ": 7932,
      "ተጨ": 7933,
      "##ከበረ": 7934,
      "እየታ": 7935,
      "ገደ": 7936,
      "ተጠና": 7937,
      "ቀይ": 7938,
      "##ማግ": 7939,
      "2011": 7940,
      "##ጠኝነት": 7941,
      "የማን": 7942,
      "የመን": 7943,
      "ስጋት": 7944,
      "ለመቀ": 7945,
      "እንጅ": 7946,
      "ጥቅምት": 7947,
      "##ቆር": 7948,
      "##ታወቅ": 7949,
      "ቁጥጥር": 7950,
      "በስተቀር": 7951,
      "የሚያስችል": 7952,
      "##ጥረው": 7953,
      "##ሸነፍ": 7954,
      "##ሳችን": 7955,
      "##ሰስ": 7956,
      "ታዋቂ": 7957,
      "##ብል": 7958,
      "መኮንን": 7959,
      "ለማወቅ": 7960,
      "ካብ": 7961,
      "የወደ": 7962,
      "##ለዋ": 7963,
      "አይቻልም": 7964,
      "ከሁለት": 7965,
      "ተፅ": 7966,
      "ከዚህም": 7967,
      "ልምድ": 7968,
      "አበበ": 7969,
      "##ሰጠ": 7970,
      "መምህ": 7971,
      "40": 7972,
      "2008": 7973,
      "ማቅረብ": 7974,
      "ክልሎች": 7975,
      "የአውሮፓ": 7976,
      "ምሽት": 7977,
      "የሚባለው": 7978,
      "##ገሪቱን": 7979,
      "##ረፈ": 7980,
      "መንገዶች": 7981,
      "ሰኔ": 7982,
      "አሕ": 7983,
      "ጋዜጠኞች": 7984,
      "ደራሲ": 7985,
      "ሃገራት": 7986,
      "##ሮፕላን": 7987,
      "ይኼ": 7988,
      "##በለ": 7989,
      "መገለ": 7990,
      "##ወሰን": 7991,
      "##ላስ": 7992,
      "##ሔራዊ": 7993,
      "አስቀ": 7994,
      "በሽታ": 7995,
      "በእው": 7996,
      "##ረደ": 7997,
      "##ልማ": 7998,
      "ተሳትፎ": 7999,
      "አስከ": 8000,
      "መድኃ": 8001,
      "ሰላ": 8002,
      "ከደ": 8003,
      "በ201": 8004,
      "##ቱና": 8005,
      "አላህ": 8006,
      "##ቀሱ": 8007,
      "ተያይ": 8008,
      "የዐ": 8009,
      "ዋስትና": 8010,
      "##ጥን": 8011,
      "በሥ": 8012,
      "ብዛት": 8013,
      "ዝግጅ": 8014,
      "የአገር": 8015,
      "##ጠየቅ": 8016,
      "የሚቆጠሩ": 8017,
      "በሁሉም": 8018,
      "##ስቶች": 8019,
      "ይታወሳል": 8020,
      "ይመል": 8021,
      "ፕሪ": 8022,
      "Ad": 8023,
      "ይጫኑ": 8024,
      "##ድሩ": 8025,
      "##ታሉ": 8026,
      "ኮር": 8027,
      "ነህ": 8028,
      "ከ3": 8029,
      "2007": 8030,
      "##ነን": 8031,
      "##ሥራት": 8032,
      "ለመሆን": 8033,
      "##ግለጽ": 8034,
      "የምርጫ": 8035,
      "##ስም": 8036,
      "የግን": 8037,
      "ማቴ": 8038,
      "Se": 8039,
      "የህወሓት": 8040,
      "##ንድር": 8041,
      "ትልቁ": 8042,
      "የሚያው": 8043,
      "መቃ": 8044,
      "አልቻ": 8045,
      "##ከም": 8046,
      "##ፎር": 8047,
      "መሣሪያ": 8048,
      "የፍቅር": 8049,
      "##ንቃቄ": 8050,
      "ብርሃኑ": 8051,
      "##ሳሉ": 8052,
      "አያስ": 8053,
      "አፍሪቃ": 8054,
      "ዳዊት": 8055,
      "ቻይና": 8056,
      "ተመስ": 8057,
      "እግዚአብሄር": 8058,
      "ሽልማት": 8059,
      "ወገኖ": 8060,
      "መጻሕፍት": 8061,
      "አግባብ": 8062,
      "##ነገረ": 8063,
      "##ከበ": 8064,
      "##ያችን": 8065,
      "##ኒክ": 8066,
      "የሚመ": 8067,
      "በተቃ": 8068,
      "ፓትርያርክ": 8069,
      "##ሻው": 8070,
      "##ማሉ": 8071,
      "የታሪክ": 8072,
      "በመተ": 8073,
      "ቡድኖች": 8074,
      "ኦባ": 8075,
      "አምባሳ": 8076,
      "ፈጣሪ": 8077,
      "##ከተል": 8078,
      "##ጫወት": 8079,
      "##ላህ": 8080,
      "##ምባሲ": 8081,
      "ጥም": 8082,
      "##lo": 8083,
      "##ነታቸውን": 8084,
      "አዘ": 8085,
      "ይፈል": 8086,
      "ነጻነት": 8087,
      "##ስኮ": 8088,
      "2015": 8089,
      "##ex": 8090,
      "በካ": 8091,
      "ንጉሥ": 8092,
      "አደባባይ": 8093,
      "የፌዴራል": 8094,
      "##ንግተን": 8095,
      "##ዩን": 8096,
      "ዕር": 8097,
      "ከሀ": 8098,
      "ፈል": 8099,
      "##ሃብ": 8100,
      "##ሮን": 8101,
      "ነገሮችን": 8102,
      "ወንጌል": 8103,
      "##ሦስት": 8104,
      "ቅዳሜ": 8105,
      "የተወ": 8106,
      "አንፃር": 8107,
      "##ራኒ": 8108,
      "መምህር": 8109,
      "አብርሃ": 8110,
      "አንጻ": 8111,
      "ማህበራዊ": 8112,
      "ለጥ": 8113,
      "በጀ": 8114,
      "ያም": 8115,
      "##ሐፊ": 8116,
      "ጽሁፍ": 8117,
      "ፈር": 8118,
      "ዘግ": 8119,
      "ይሰማ": 8120,
      "ዘው": 8121,
      "##ያኑ": 8122,
      "##መጣል": 8123,
      "##ሳሌም": 8124,
      "ማግ": 8125,
      "በአፍሪካ": 8126,
      "##ባጭ": 8127,
      "....": 8128,
      "፡፡”": 8129,
      "ተወላጆች": 8130,
      "##ኩን": 8131,
      "ሆና": 8132,
      "##ሮቹ": 8133,
      "ፕሮጀክት": 8134,
      "##ያጭ": 8135,
      "##ሱዳን": 8136,
      "ቢኖር": 8137,
      "ቅድመ": 8138,
      "ነዋሪ": 8139,
      "ኢንዱስትሪ": 8140,
      "##ላቱ": 8141,
      "ሰል": 8142,
      "ትእ": 8143,
      "##ጋንዳ": 8144,
      "##ጻፈ": 8145,
      "##ባበ": 8146,
      "የክልሉ": 8147,
      "ለመሆኑ": 8148,
      "##ነስተኛ": 8149,
      "በእጅ": 8150,
      "##ማረ": 8151,
      "ለነ": 8152,
      "##ንደቅ": 8153,
      "መንግስታት": 8154,
      "##ታር": 8155,
      "እርግ": 8156,
      "ብሔረ": 8157,
      "##ቃወም": 8158,
      "ዐቢይ": 8159,
      "##ለየ": 8160,
      "ሰማያዊ": 8161,
      "እውን": 8162,
      "ኮሌ": 8163,
      "##ዘጋጁ": 8164,
      "ፋይ": 8165,
      "ወለ": 8166,
      "##ምስት": 8167,
      "ፍለጋ": 8168,
      "ስለሆነም": 8169,
      "በምር": 8170,
      "##ድሶ": 8171,
      "የሚመራ": 8172,
      "ክን": 8173,
      "##ገውን": 8174,
      "##ነቅ": 8175,
      "በእግዚአብሔር": 8176,
      "ገዥ": 8177,
      "በላ": 8178,
      "ወታደራዊ": 8179,
      "ትዕዛዝ": 8180,
      "ቬለ": 8181,
      "መጋቢት": 8182,
      "አንዲት": 8183,
      "የካቲት": 8184,
      "ሆስፒታል": 8185,
      "ለሞ": 8186,
      "ይሄን": 8187,
      "##ዋር": 8188,
      "አድርጓል": 8189,
      "##ችላለን": 8190,
      "##ዋዕት": 8191,
      "ሕዝባዊ": 8192,
      "ገዢ": 8193,
      "##ንግል": 8194,
      "ታውቋል": 8195,
      "##ቻሉ": 8196,
      "##ግባቡ": 8197,
      "መጽሔ": 8198,
      "ይስ": 8199,
      "ብቃት": 8200,
      "##ያተ": 8201,
      "አንዳርጋቸው": 8202,
      "ግጭ": 8203,
      "##ጣጥ": 8204,
      "መዳ": 8205,
      "ተከታታይ": 8206,
      "መጨ": 8207,
      "##ራች": 8208,
      "##ነገር": 8209,
      "ጠባ": 8210,
      "##ረንሳይ": 8211,
      "##ሳተፍ": 8212,
      "ኃጢ": 8213,
      "በሳ": 8214,
      "ተቀም": 8215,
      "አስቸጋሪ": 8216,
      "አደረገ": 8217,
      "እንችላለን": 8218,
      "በተግባር": 8219,
      "ሀይ": 8220,
      "##ቃለን": 8221,
      "የሚሆነው": 8222,
      "##ንሰ": 8223,
      "##ዎቻችን": 8224,
      "ውስ": 8225,
      "አስደ": 8226,
      "አይደሉም": 8227,
      "ይመ": 8228,
      "##ባበር": 8229,
      "ካልሆነ": 8230,
      "በድር": 8231,
      "የኢትዮ": 8232,
      "ማጥፋት": 8233,
      "ለታ": 8234,
      "ጀመረ": 8235,
      "የጠቅላይ": 8236,
      "በሁለ": 8237,
      "##ፕሎማ": 8238,
      "ሰዓ": 8239,
      "ከጎ": 8240,
      "##ያለሁ": 8241,
      "ሐዋርያ": 8242,
      "##ir": 8243,
      "##ስራኤል": 8244,
      "##ብናል": 8245,
      "ምንጮች": 8246,
      "##ኮት": 8247,
      "##ደንት": 8248,
      "የህግ": 8249,
      "መደበኛ": 8250,
      "for": 8251,
      "ጉብኝት": 8252,
      "##ግርኛ": 8253,
      "የወን": 8254,
      "እድገት": 8255,
      "##ልካም": 8256,
      "ተብሏል": 8257,
      "ለምንድ": 8258,
      "##ደኛ": 8259,
      "##ንጀል": 8260,
      "ሲሆኑ": 8261,
      "Mar": 8262,
      "በማይ": 8263,
      "ይፈልጋል": 8264,
      "##ቂዎች": 8265,
      "በጀት": 8266,
      "ዘጠኝ": 8267,
      "##ድሜ": 8268,
      "ምሕ": 8269,
      "##ፃሚ": 8270,
      "##ኖስ": 8271,
      "##ሯቸው": 8272,
      "##ስተዳደር": 8273,
      "ቁጥ": 8274,
      "ሁኔታዎች": 8275,
      "ብቸ": 8276,
      "ሃሳ": 8277,
      "ቀውስ": 8278,
      "ውኃ": 8279,
      "##ጎችን": 8280,
      "##ለናል": 8281,
      "##ነሰ": 8282,
      "ማም": 8283,
      "##ህዶ": 8284,
      "ፍልስ": 8285,
      "ድንበር": 8286,
      "##ub": 8287,
      "የግለሰቦች": 8288,
      "አማካኝነት": 8289,
      "ጥላቻ": 8290,
      "እንስ": 8291,
      "ዲሲ": 8292,
      "ኢሕአዴግ": 8293,
      "ሁለተኛው": 8294,
      "##በራት": 8295,
      "እጥረት": 8296,
      "##ጣው": 8297,
      "ሰራዊት": 8298,
      "አርቲ": 8299,
      "##ዶቹ": 8300,
      "መስቀል": 8301,
      "##ሰቦ": 8302,
      "ሃላፊ": 8303,
      "##ናሽ": 8304,
      "ገልፀ": 8305,
      "አይቀርም": 8306,
      "##ፍቶ": 8307,
      "##ሪው": 8308,
      "##ደርጋ": 8309,
      "ከግ": 8310,
      "##ጠመ": 8311,
      "ሚንስትር": 8312,
      "ተብለው": 8313,
      "ከበደ": 8314,
      "መኖሪያ": 8315,
      "##ቆች": 8316,
      "አለን": 8317,
      "##ዲና": 8318,
      "መሰረታዊ": 8319,
      "አሳል": 8320,
      "##ችኋል": 8321,
      "አጭር": 8322,
      "##op": 8323,
      "ፊል": 8324,
      "ኢንተር": 8325,
      "##ቶችና": 8326,
      "ስራዎች": 8327,
      "##ሬታ": 8328,
      "ችግሩ": 8329,
      "##ሙስ": 8330,
      "የቀድሞው": 8331,
      "##ላቸዋል": 8332,
      "##ሏቸው": 8333,
      "##መለከተው": 8334,
      "በጠ": 8335,
      "##ሳተፉ": 8336,
      "የአል": 8337,
      "ማጣ": 8338,
      "ተሰጥ": 8339,
      "በፓ": 8340,
      "##ere": 8341,
      "ዕቃ": 8342,
      "##ስተው": 8343,
      "ቀርቶ": 8344,
      "ተስማ": 8345,
      "ለመግ": 8346,
      "ከዘ": 8347,
      "ክህ": 8348,
      "ቀጣ": 8349,
      "am": 8350,
      "##ዛው": 8351,
      "##ማሪዎች": 8352,
      "በኦ": 8353,
      "##ቡዕ": 8354,
      "##ቨስት": 8355,
      "##ነብ": 8356,
      "199": 8357,
      "##ጻጸ": 8358,
      "ተደ": 8359,
      "መሆናቸው": 8360,
      "ጠላት": 8361,
      "ጳጳሳት": 8362,
      "##ፈጠሩ": 8363,
      "ስጦታ": 8364,
      "ባለስልጣናት": 8365,
      "ተሳታ": 8366,
      "##ስፋት": 8367,
      "የመከላከያ": 8368,
      "የጣ": 8369,
      "##ቻለው": 8370,
      "በጽ": 8371,
      "##ጠለ": 8372,
      "ላለፉት": 8373,
      "ምክንያቶች": 8374,
      "ምርምር": 8375,
      "ዩኒቨርስቲ": 8376,
      "ያወ": 8377,
      "አሻ": 8378,
      "ይጠይ": 8379,
      "እያንዳንዱ": 8380,
      "አቤቱ": 8381,
      "በድም": 8382,
      "መዛ": 8383,
      "##ናገረው": 8384,
      "የሚሰጡ": 8385,
      "##ቆስ": 8386,
      "የአቶ": 8387,
      "##ከተለው": 8388,
      "ኋላ": 8389,
      "##ደርሱ": 8390,
      "##ከሉ": 8391,
      "ራሳቸውን": 8392,
      "##ዴት": 8393,
      "መጋ": 8394,
      "##ግሪ": 8395,
      "ብዙዎች": 8396,
      "ጅማ": 8397,
      "##ኾን": 8398,
      "አንጻር": 8399,
      "##ማግሌ": 8400,
      "##ስክ": 8401,
      "ሰአት": 8402,
      "መናገር": 8403,
      "ክት": 8404,
      "##ጀምር": 8405,
      "ሪፖርተር": 8406,
      "ምግባር": 8407,
      "ጥን": 8408,
      "##ካተ": 8409,
      "##ባባሪ": 8410,
      "ለሀ": 8411,
      "Wel": 8412,
      "ከራ": 8413,
      "ዘረ": 8414,
      "በውስ": 8415,
      "ተክለ": 8416,
      "##ፈለጉ": 8417,
      "በደል": 8418,
      "ማዕከላዊ": 8419,
      "not": 8420,
      "##ግሩ": 8421,
      "እንደመ": 8422,
      "##ነበረው": 8423,
      "የን": 8424,
      "ባሻገር": 8425,
      "##ይቸ": 8426,
      "##ነርሱ": 8427,
      "##ደቱ": 8428,
      "መንግሥቱ": 8429,
      "Dr": 8430,
      "በሚገባ": 8431,
      "አጠና": 8432,
      "በዩ": 8433,
      "ያንን": 8434,
      "በምድር": 8435,
      "ምርቶች": 8436,
      "መለያ": 8437,
      "እንደሚያስ": 8438,
      "ሕጋዊ": 8439,
      "፳፻": 8440,
      "##ተኮ": 8441,
      "##ልምና": 8442,
      "ምዕ": 8443,
      "ትላ": 8444,
      "ያጋ": 8445,
      "በሕግ": 8446,
      "የተከሰ": 8447,
      "##ጀንሲ": 8448,
      "##ate": 8449,
      "እሳት": 8450,
      "##ፈዋል": 8451,
      "##oc": 8452,
      "የሚሰጥ": 8453,
      "##ነውን": 8454,
      "የተፈጥሮ": 8455,
      "አሰራር": 8456,
      "##ዊነት": 8457,
      "ትክክል": 8458,
      "ካለው": 8459,
      "##ግግር": 8460,
      "ወሬ": 8461,
      "ለመጀመሪያ": 8462,
      "##ቻለሁ": 8463,
      "ተር": 8464,
      "##በርካታ": 8465,
      "##ኖችን": 8466,
      "ወታደሮች": 8467,
      "የሠ": 8468,
      "ማኅበረ": 8469,
      "ምኒልክ": 8470,
      "##ያም": 8471,
      "##ህዴድ": 8472,
      "ሰባ": 8473,
      "##ምቤ": 8474,
      "ዘይ": 8475,
      "በትግራይ": 8476,
      "ቀለም": 8477,
      "##ዮችን": 8478,
      "ለይ": 8479,
      "##ሰኞ": 8480,
      "ድራማ": 8481,
      "የለውጥ": 8482,
      "ወሰ": 8483,
      "##ሙር": 8484,
      "##ማሩ": 8485,
      "እንቅ": 8486,
      "##ዥም": 8487,
      "የግድ": 8488,
      "##ሳችሁ": 8489,
      "እስረኞች": 8490,
      "ቴዎድሮስ": 8491,
      "##ሐይ": 8492,
      "ሆኑ": 8493,
      "ዕቅድ": 8494,
      "##ውንት": 8495,
      "##ጥረ": 8496,
      "##ሮው": 8497,
      "ህወሀት": 8498,
      "##ሊያን": 8499,
      "##ውሰድ": 8500,
      "ጠላ": 8501,
      "እቅድ": 8502,
      "ነጋዴ": 8503,
      "##ጥቅ": 8504,
      "##ቂቅ": 8505,
      "በዛሬው": 8506,
      "ውል": 8507,
      "##ናገረ": 8508,
      "ያገኘ": 8509,
      "ማሳያ": 8510,
      "##ገደሉ": 8511,
      "##ዘጋጀት": 8512,
      "በትክክል": 8513,
      "##ማሊያ": 8514,
      "ገብቶ": 8515,
      "ግንዛቤ": 8516,
      "##ህበራዊ": 8517,
      "##ነበሩ": 8518,
      "ይሁንና": 8519,
      "ድንጋ": 8520,
      "##ከናወን": 8521,
      "##ጁን": 8522,
      "ቦርድ": 8523,
      "ፀረ": 8524,
      "የተጠቀ": 8525,
      "የአር": 8526,
      "##ጠንቀ": 8527,
      "ማብራ": 8528,
      "##//": 8529,
      "ባለቤ": 8530,
      "መገ": 8531,
      "##ምም": 8532,
      "##dis": 8533,
      "##im": 8534,
      "ይቆ": 8535,
      "እስክንድር": 8536,
      "ፕሮጀክ": 8537,
      "ተሾ": 8538,
      "ግፍ": 8539,
      "ስላል": 8540,
      "##ይናንስ": 8541,
      "ለሚያ": 8542,
      "ጠቁ": 8543,
      "ማሰብ": 8544,
      "ሁለቱም": 8545,
      "##ገልግሎት": 8546,
      "ከሃ": 8547,
      "##ኮኖሚያ": 8548,
      "የሸ": 8549,
      "ስሙ": 8550,
      "ችሎት": 8551,
      "እቃ": 8552,
      "##ፈስ": 8553,
      "አስኪያጅ": 8554,
      "##ዳሉ": 8555,
      "Comm": 8556,
      "እርሱም": 8557,
      "የሃይማኖት": 8558,
      "##ገኘት": 8559,
      "እይታ": 8560,
      "ለረ": 8561,
      "##ጀመሩ": 8562,
      "##ማቸውን": 8563,
      "ፍቃ": 8564,
      "ያለፈ": 8565,
      "##che": 8566,
      "31": 8567,
      "በቀር": 8568,
      "ሁሉን": 8569,
      "መጥፎ": 8570,
      "##ጣቱ": 8571,
      "በሀገሪቱ": 8572,
      "በፊ": 8573,
      "##ቲክ": 8574,
      "የአለም": 8575,
      "ምንድነው": 8576,
      "ኃይለማርያም": 8577,
      "##ልቃይት": 8578,
      "ዝግጁ": 8579,
      "ይጠበ": 8580,
      "##ዋቸው": 8581,
      "አትሌ": 8582,
      "##ሳካ": 8583,
      "##ዲን": 8584,
      "የፌደራል": 8585,
      "ሰንበት": 8586,
      "The": 8587,
      "ተዋህዶ": 8588,
      "የቅዱስ": 8589,
      "##ah": 8590,
      "ስልጣ": 8591,
      "ያግ": 8592,
      "##ሠረተ": 8593,
      "##ፈልግም": 8594,
      "##ቢሲ": 8595,
      "ስደተኞች": 8596,
      "##ብርና": 8597,
      "ህወሃት": 8598,
      "ሠራተኞች": 8599,
      "የሳ": 8600,
      "ፍራን": 8601,
      "##ff": 8602,
      "አምባገነ": 8603,
      "መልሶ": 8604,
      "##ክሮች": 8605,
      "##ዛን": 8606,
      "##በታ": 8607,
      "##ዕል": 8608,
      "##ንቀሳቃሽ": 8609,
      "እንዳያ": 8610,
      "ፍጹም": 8611,
      "##ext": 8612,
      "Leg": 8613,
      "June": 8614,
      "ቅጣት": 8615,
      "##ዋወ": 8616,
      "በተለያየ": 8617,
      "##ዋለን": 8618,
      "የሚያስተ": 8619,
      "ድርድር": 8620,
      "##ttp": 8621,
      "##ገለፀ": 8622,
      "መጠየቅ": 8623,
      "እንዲያውም": 8624,
      "እግዚ": 8625,
      "ለማየት": 8626,
      "##ያያ": 8627,
      "በፍጥነት": 8628,
      "ይደረ": 8629,
      "ግብረ": 8630,
      "##ልልስ": 8631,
      "አያሌ": 8632,
      "##ጠናከር": 8633,
      "ምና": 8634,
      "ስለሚያ": 8635,
      "##ሆኑም": 8636,
      "ኢሳት": 8637,
      "የተዘ": 8638,
      "የሚችለው": 8639,
      "በዋና": 8640,
      "##ላለሁ": 8641,
      "##ዚያን": 8642,
      "ዕድገት": 8643,
      "##ኒኬሽን": 8644,
      "በሞ": 8645,
      "የተሰማ": 8646,
      "ሰማይ": 8647,
      "የለበትም": 8648,
      "የእግር": 8649,
      "የየ": 8650,
      "መሬ": 8651,
      "ይሖዋ": 8652,
      "የተመረ": 8653,
      "በደንብ": 8654,
      "ዙር": 8655,
      "የመስመር": 8656,
      "አንድዬ": 8657,
      "አሠራር": 8658,
      "ጥፋት": 8659,
      "የሰብአዊ": 8660,
      "ይመልከቱ": 8661,
      "አልበ": 8662,
      "በእስር": 8663,
      "እኔን": 8664,
      "ሁላችንም": 8665,
      "በድን": 8666,
      "##ፍል": 8667,
      "##uts": 8668,
      "አድርገዋል": 8669,
      "##በተ": 8670,
      "##ብቻ": 8671,
      "##ለኛ": 8672,
      "አነጋ": 8673,
      "ሙያ": 8674,
      "የሚደረግ": 8675,
      "ብሄር": 8676,
      "ነች": 8677,
      "እመ": 8678,
      "ትብብር": 8679,
      "የሚመጣ": 8680,
      "##ፈታ": 8681,
      "ከጠ": 8682,
      "##ንጎ": 8683,
      "ሁሌ": 8684,
      "ጋራ": 8685,
      "##ግበ": 8686,
      "##የሩሳሌም": 8687,
      "##ወስድ": 8688,
      "http": 8689,
      "ግድያ": 8690,
      ")።": 8691,
      "ስንት": 8692,
      "##ንቱ": 8693,
      "##ጢር": 8694,
      "መጽሔት": 8695,
      "መሞ": 8696,
      "ጫና": 8697,
      "##ገባት": 8698,
      "እንደምት": 8699,
      "ሁልጊዜ": 8700,
      "የኛ": 8701,
      "ከ19": 8702,
      "://": 8703,
      "አየ": 8704,
      "##መቻ": 8705,
      "ተፈጥሮ": 8706,
      "ጉዳዩን": 8707,
      "##ረበ": 8708,
      "በሰማ": 8709,
      "##pt": 8710,
      "አጋራ": 8711,
      "አዳራሽ": 8712,
      "በዘር": 8713,
      "##ቸውም": 8714,
      "##ጥፍ": 8715,
      "ቀጠሮ": 8716,
      "ከእነዚህ": 8717,
      "ከየት": 8718,
      "ጴጥሮ": 8719,
      "የሚፈልጉ": 8720,
      "ምሁራን": 8721,
      "##ኑም": 8722,
      "በቦ": 8723,
      "ግጥም": 8724,
      "እል": 8725,
      "አንደኛ": 8726,
      "አነስተኛ": 8727,
      "አዲ": 8728,
      "በመን": 8729,
      "ከዛ": 8730,
      "ገዳም": 8731,
      "##ዳጊ": 8732,
      "ይተ": 8733,
      "ውሎ": 8734,
      "ለቀ": 8735,
      "##ማጭ": 8736,
      "May": 8737,
      "##ለማችን": 8738,
      "60ኛ": 8739,
      "ማራ": 8740,
      "እያስ": 8741,
      "ሳለ": 8742,
      "ግዙ": 8743,
      "የዶይቸ": 8744,
      "ሌሎችም": 8745,
      "አስቀድሞ": 8746,
      "##ገናኝ": 8747,
      "##ልጠና": 8748,
      "ደጋፊ": 8749,
      "እግዚአብሔርን": 8750,
      "ማክሰኞ": 8751,
      "ባህሪ": 8752,
      "በመንግስት": 8753,
      "##ሰጣቸው": 8754,
      "ተው": 8755,
      "##ደባባይ": 8756,
      "በአግባቡ": 8757,
      "እለት": 8758,
      "መምሪያ": 8759,
      "የፓርቲ": 8760,
      "ሳን": 8761,
      "ለሞባይል": 8762,
      "ይቀጥ": 8763,
      "##ናግ": 8764,
      "ውጤታማ": 8765,
      "Legal": 8766,
      "ትዝ": 8767,
      "##ጪው": 8768,
      "July": 8769,
      "Deuts": 8770,
      "ጎል": 8771,
      "የሚገ": 8772,
      "##ia": 8773,
      "##ትንና": 8774,
      "ሲያስ": 8775,
      "ስለዚህም": 8776,
      "ስለም": 8777,
      "እውነታ": 8778,
      "ርቀት": 8779,
      "ጉርሻ": 8780,
      "የመሬት": 8781,
      "ይጠበቃል": 8782,
      "ብዙም": 8783,
      "##ፁም": 8784,
      "የሚሰራ": 8785,
      "2005": 8786,
      "ስና": 8787,
      "የኑ": 8788,
      "##ሮጳ": 8789,
      "የተቀመ": 8790,
      "አሰልጣ": 8791,
      "ማጥ": 8792,
      "እንዳለበት": 8793,
      "Deutsche": 8794,
      "##ዳዩ": 8795,
      "መረዳት": 8796,
      "##ጠቃቀም": 8797,
      "ማሻሻ": 8798,
      "Welle": 8799,
      "notice": 8800,
      "##ኮኖሚያዊ": 8801,
      "##ተኩ": 8802,
      "##ሪያም": 8803,
      "ኣይ": 8804,
      "የአገሪቱ": 8805,
      "ሽማግሌ": 8806,
      "ኩባንያዎች": 8807,
      "የቢ": 8808,
      "##ጻፍ": 8809,
      "አፋ": 8810,
      "የባለ": 8811,
      "ብድር": 8812,
      "እንደሚገባ": 8813,
      "##ድፍ": 8814,
      "በቅድ": 8815,
      "by": 8816,
      "የጽ": 8817,
      "ነገሩ": 8818,
      "በጭ": 8819,
      "ተክ": 8820,
      "ግምት": 8821,
      "##ጻናት": 8822,
      "##ናሉ": 8823,
      "ኢሳያስ": 8824,
      "ችሎታ": 8825,
      "##ንዱ": 8826,
      "##ኔል": 8827,
      "የወሰ": 8828,
      "አዎ": 8829,
      "ሥራዎች": 8830,
      "##ሄደ": 8831,
      "##ሬድ": 8832,
      "የጀርመን": 8833,
      "##ርጋ": 8834,
      "በሰሜን": 8835,
      "ምስጋና": 8836,
      "በአብዛ": 8837,
      "ይሰጣል": 8838,
      "##ራንስፖርት": 8839,
      "አንቀፅ": 8840,
      "አስረድ": 8841,
      "ደርሶ": 8842,
      "ተቃዋሚዎች": 8843,
      "ከሁሉም": 8844,
      "##ችበት": 8845,
      "##ሓፍ": 8846,
      "መፍጠር": 8847,
      "በአገሪቱ": 8848,
      "##ጫን": 8849,
      "አሉት": 8850,
      "ማመን": 8851,
      "##ፌዴ": 8852,
      "አረጋ": 8853,
      "##ችም": 8854,
      "ኤምባሲ": 8855,
      "አስተዋጽ": 8856,
      "##od": 8857,
      "##ይቅ": 8858,
      "##ፈርት": 8859,
      "መስሪያ": 8860,
      "##ረጋገጠ": 8861,
      "ከመንግ": 8862,
      "ድንቅ": 8863,
      "የሚያሳይ": 8864,
      "ያድር": 8865,
      "የገባ": 8866,
      "ከፋ": 8867,
      "ደሞ": 8868,
      "##te": 8869,
      "##ረክ": 8870,
      "##ers": 8871,
      "እሁድ": 8872,
      "##ኾነ": 8873,
      "##ምላ": 8874,
      "2006": 8875,
      "ተያይዞ": 8876,
      "ጄኔ": 8877,
      "##ቤን": 8878,
      "መዝሙር": 8879,
      "ሃያ": 8880,
      "ልዑ": 8881,
      "ኢትዮጵያዊያን": 8882,
      "በሚለው": 8883,
      "ያልሆነ": 8884,
      "##ጦርነት": 8885,
      "##ጻነት": 8886,
      "መቼም": 8887,
      "ትግሬ": 8888,
      "##ገለጹት": 8889,
      "##ደቀ": 8890,
      "ዋነኛ": 8891,
      "##lic": 8892,
      "አብያተ": 8893,
      "##ታወቁ": 8894,
      "አካሄድ": 8895,
      "የቱ": 8896,
      "##ሸን": 8897,
      "ፓርላማ": 8898,
      "መሰል": 8899,
      "ታማኝ": 8900,
      "##ፈነ": 8901,
      "##ቃለሁ": 8902,
      "በየት": 8903,
      "##ርፍ": 8904,
      "##ያስፖ": 8905,
      "##በራቸው": 8906,
      "የአባ": 8907,
      "ተነስ": 8908,
      "ዘላቂ": 8909,
      "መሠረታዊ": 8910,
      "##መስል": 8911,
      "Next": 8912,
      "Home": 8913,
      "ስጋ": 8914,
      "በፕ": 8915,
      "ደንብ": 8916,
      "ክልላዊ": 8917,
      "ለሌሎች": 8918,
      "##ኤስ": 8919,
      "እንደሆኑ": 8920,
      "##ባችሁ": 8921,
      "##ቶን": 8922,
      "##ress": 8923,
      "ሐምሌ": 8924,
      "መዋቅር": 8925,
      "##ክተ": 8926,
      "##ዎቻቸው": 8927,
      "ዘለ": 8928,
      "ድንግል": 8929,
      "በማሳ": 8930,
      "አውሮፓ": 8931,
      "ኤም": 8932,
      "##ዶችን": 8933,
      "የሚገል": 8934,
      "በፖለቲካ": 8935,
      "ለሙ": 8936,
      "ልቦና": 8937,
      "##ችውን": 8938,
      "##ፊው": 8939,
      "በአገር": 8940,
      "##ማው": 8941,
      "ሬድዮ": 8942,
      "ነፍስ": 8943,
      "የውሃ": 8944,
      "አይመስለኝም": 8945,
      "ማታ": 8946,
      "ንብረ": 8947,
      "##ጥሩ": 8948,
      "እየሆነ": 8949,
      "መንግስታዊ": 8950,
      "##ቲቪ": 8951,
      "የተቃውሞ": 8952,
      "አርብ": 8953,
      "የምስ": 8954,
      "ለመፍታት": 8955,
      "##ስበው": 8956,
      "##ችሉም": 8957,
      "##ዴን": 8958,
      "በከተማ": 8959,
      "##ive": 8960,
      "ስምንት": 8961,
      "ማይ": 8962,
      "##ረገ": 8963,
      "##ረጠ": 8964,
      "በርግጥ": 8965,
      "አንደኛው": 8966,
      "ከውጭ": 8967,
      "ስብስብ": 8968,
      "አልጋ": 8969,
      "በሀገር": 8970,
      "ዳግም": 8971,
      "እንዳሉ": 8972,
      "የማኅ": 8973,
      "ጥቃ": 8974,
      "##ረፍት": 8975,
      "አድርገን": 8976,
      "ከ4": 8977,
      "TV": 8978,
      "ባሉ": 8979,
      "በምት": 8980,
      "ረቂቅ": 8981,
      "አብረው": 8982,
      "##ላለን": 8983,
      "ዜናዎች": 8984,
      "##ስተኛው": 8985,
      "##ዝግ": 8986,
      "##ጠብቅ": 8987,
      "ይሉ": 8988,
      "ግልፅ": 8989,
      "ባሕር": 8990,
      "ጸጋ": 8991,
      "##ብጥ": 8992,
      "አሕመድ": 8993,
      "አደገኛ": 8994,
      "አኳ": 8995,
      "ጓደኛ": 8996,
      "ያኔ": 8997,
      "##ፍረት": 8998,
      "በቆ": 8999,
      "ወዳጅ": 9000,
      "ሳምንታዊ": 9001,
      "##ነዋል": 9002,
      "##ወዳ": 9003,
      "##ረዳው": 9004,
      "የአው": 9005,
      "የራሱን": 9006,
      "ወድ": 9007,
      "ሊቃነ": 9008,
      "ፍልስፍና": 9009,
      "መዝገብ": 9010,
      "እባክ": 9011,
      "ትግርኛ": 9012,
      "ተደርጓል": 9013,
      "(፪": 9014,
      "የተገኘ": 9015,
      "ህክምና": 9016,
      "ዓመቱ": 9017,
      "##ious": 9018,
      "ያለመ": 9019,
      "##ናቂ": 9020,
      "##ሀብ": 9021,
      "##ሮም": 9022,
      "የሚቀ": 9023,
      "መደብ": 9024,
      "##ist": 9025,
      "##ሰረ": 9026,
      "ባለፈ": 9027,
      "አስተዳደ": 9028,
      "##ጉር": 9029,
      "##un": 9030,
      "ያደረጉ": 9031,
      "ተመር": 9032,
      "Pre": 9033,
      "በከ": 9034,
      "ልብስ": 9035,
      "##ርካ": 9036,
      "እየተባለ": 9037,
      "በነበረው": 9038,
      "##ቆብ": 9039,
      "እንዳስ": 9040,
      "ህጋዊ": 9041,
      "በፍቅር": 9042,
      "አሜን": 9043,
      "##ama": 9044,
      "##ባበል": 9045,
      "##ሰና": 9046,
      "##ጆቹ": 9047,
      "##ሥራቅ": 9048,
      "##ገዝ": 9049,
      "የሆ": 9050,
      "ክርክር": 9051,
      "ጣልቃ": 9052,
      "##ንዳንድ": 9053,
      "የተከ": 9054,
      "አውጥ": 9055,
      "ማረጋገ": 9056,
      "የተመሰረተ": 9057,
      "##መለከቱ": 9058,
      "##ሐሴ": 9059,
      "March": 9060,
      "##ቋንቋ": 9061,
      "ሚሊየን": 9062,
      "ቁም": 9063,
      "በዳ": 9064,
      "##ወሰነ": 9065,
      "##ግዳ": 9066,
      "##ንፈስ": 9067,
      "ተግባራት": 9068,
      "2ኛ": 9069,
      "በመፍ": 9070,
      "ሰኞ": 9071,
      "ሰብዓዊ": 9072,
      "ቀበሌ": 9073,
      "አደራ": 9074,
      "በሥራ": 9075,
      "ካሉ": 9076,
      "##ላቁ": 9077,
      "##ንጻ": 9078,
      "##ጠላ": 9079,
      "ሰብሳቢ": 9080,
      "ቋሚ": 9081,
      "የፍርድ": 9082,
      "##ረጡ": 9083,
      "ሌሎችን": 9084,
      "##ሰቃ": 9085,
      "##ገለግ": 9086,
      "ምት": 9087,
      "እንደምን": 9088,
      "##ኒቨርሲቲ": 9089,
      "ማሕ": 9090,
      "##ግሬ": 9091,
      "አቅራቢ": 9092,
      "##ሞችን": 9093,
      "ቀና": 9094,
      "##ቆና": 9095,
      "ተደራ": 9096,
      "##ሽንግተን": 9097,
      "ቀዳ": 9098,
      "በርስ": 9099,
      "ዳኛ": 9100,
      "በአካባቢው": 9101,
      "ሳሙ": 9102,
      "ያወጣ": 9103,
      "ዩናይትድ": 9104,
      "##ምቤላ": 9105,
      "ገልፀዋል": 9106,
      "ማብራሪያ": 9107,
      "ተም": 9108,
      "##ክርስቲያ": 9109,
      "ቀስ": 9110,
      "የፕሮ": 9111,
      "##ነራል": 9112,
      "ተሟ": 9113,
      "##ፈተ": 9114,
      "ተፅዕኖ": 9115,
      "በሚገኘው": 9116,
      "የራሱ": 9117,
      "##ዑዲ": 9118,
      "አከ": 9119,
      "##ወቀ": 9120,
      "ምኞ": 9121,
      "##ኖርም": 9122,
      "ግጥ": 9123,
      "የእስ": 9124,
      "##ራቴ": 9125,
      "አፈወር": 9126,
      "ሐሳ": 9127,
      "##መታት": 9128,
      "በቡ": 9129,
      "የስነ": 9130,
      "መጠበቅ": 9131,
      "ብሩ": 9132,
      "ደኅ": 9133,
      "ጨር": 9134,
      "##ቅን": 9135,
      "አምባሳደር": 9136,
      "የቁማር": 9137,
      "##ረጋጋት": 9138,
      "##ጨመረ": 9139,
      "የማው": 9140,
      "በዲ": 9141,
      "ለቤተ": 9142,
      "##ጠበቁ": 9143,
      "በቴ": 9144,
      "##ነካ": 9145,
      "##60": 9146,
      "##out": 9147,
      "በመካ": 9148,
      "ገጾች": 9149,
      "ይኸው": 9150,
      "##ul": 9151,
      "በ3": 9152,
      "እርግጥ": 9153,
      "##ሜይል": 9154,
      "የሰጠ": 9155,
      "ቀዳሚ": 9156,
      "ማኅበር": 9157,
      "ሰንደቅ": 9158,
      "ሰሜን": 9159,
      "ካህ": 9160,
      "##ፈጠር": 9161,
      "ጥልቅ": 9162,
      "ዕውቀት": 9163,
      "ሀሳ": 9164,
      "የሁለ": 9165,
      "##ሲብ": 9166,
      "መገለጫ": 9167,
      "##ረቡ": 9168,
      "በእርሱ": 9169,
      "……": 9170,
      "ለእኔ": 9171,
      "ራዕ": 9172,
      "ስኬ": 9173,
      "ወንዝ": 9174,
      "##ራትን": 9175,
      "ፍትህ": 9176,
      "የእንግሊዝ": 9177,
      "ያደረ": 9178,
      "ለ2": 9179,
      "በራስ": 9180,
      "##ቡቲ": 9181,
      "ታላቁ": 9182,
      "ሰራተኞች": 9183,
      "ሰጠ": 9184,
      "አገኘ": 9185,
      "መጽሓፍ": 9186,
      "መውሰድ": 9187,
      "ጥበ": 9188,
      "ጳጳስ": 9189,
      "ዝና": 9190,
      "በጸ": 9191,
      "የሚገባው": 9192,
      "##ለታል": 9193,
      "ለህዝብ": 9194,
      "መረራ": 9195,
      "ቀጥታ": 9196,
      "##??": 9197,
      "በስፋት": 9198,
      "አስፈፃሚ": 9199,
      "ነጥቦች": 9200,
      "ኬንያ": 9201,
      "##ፈጸሙ": 9202,
      "##go": 9203,
      "ሥልጣ": 9204,
      "ጥፋ": 9205,
      "ከሆኑ": 9206,
      "ለመፍጠር": 9207,
      "ምልክ": 9208,
      "ለገ": 9209,
      "##ጲያ": 9210,
      "የግንቦት": 9211,
      "አባባል": 9212,
      "##ታወቂያ": 9213,
      "ኅብረት": 9214,
      "##ጋሉ": 9215,
      "አእምሮ": 9216,
      "እቲ": 9217,
      "የሥነ": 9218,
      "ለ1": 9219,
      "##ጥል": 9220,
      "##የውን": 9221,
      "ደረሰ": 9222,
      "ለመረዳት": 9223,
      "ኮርፖ": 9224,
      "አንስቶ": 9225,
      "##ፈራው": 9226,
      "##ስትያን": 9227,
      "የሙዚቃ": 9228,
      "##ንቀሳቀሱ": 9229,
      "የኢንተርኔት": 9230,
      "የሀገሪቱ": 9231,
      "##!!": 9232,
      "የሚያደርግ": 9233,
      "እየተደረገ": 9234,
      "ለሁሉም": 9235,
      "አባይ": 9236,
      "##ዛል": 9237,
      "ኦነግ": 9238,
      "##ደባ": 9239,
      "##ገስ": 9240,
      "##ህፈት": 9241,
      "ኮም": 9242,
      "##ርማ": 9243,
      "እስራኤል": 9244,
      "ያሳያል": 9245,
      "አስታውቋል": 9246,
      "##ርብ": 9247,
      "##አቸው": 9248,
      "ፈጣን": 9249,
      "ተይ": 9250,
      "ለመጠቀም": 9251,
      "ያለን": 9252,
      "እውቀት": 9253,
      "ግቢ": 9254,
      "ከክ": 9255,
      "እንዳልሆነ": 9256,
      "##ደዋል": 9257,
      "የብዙ": 9258,
      "ማሻሻያ": 9259,
      "ገንዘ": 9260,
      "##ደራጀ": 9261,
      "በሕዝብ": 9262,
      "ይኖራል": 9263,
      "ገብር": 9264,
      "##ሚዎች": 9265,
      "ድርጅቱ": 9266,
      "ከኤ": 9267,
      "##ሸጥ": 9268,
      "##ድል": 9269,
      "##ዋይ": 9270,
      "##ገናኙ": 9271,
      "ለብዙ": 9272,
      "ተለይ": 9273,
      "በኢን": 9274,
      "##ለብ": 9275,
      "ሰጥቶ": 9276,
      "##vious": 9277,
      "ተች": 9278,
      "ሙስሊም": 9279,
      "##ያሜ": 9280,
      "##ፈሩ": 9281,
      "ሃብት": 9282,
      "ያለም": 9283,
      "ተአ": 9284,
      "##ሚን": 9285,
      "ወረቀት": 9286,
      "የመረጃ": 9287,
      "ይታያል": 9288,
      "##ተም": 9289,
      "##ወራ": 9290,
      "በመጨረሻም": 9291,
      "አውሮፕላን": 9292,
      "ሠራዊት": 9293,
      "አቀፉ": 9294,
      "ወንዶች": 9295,
      "ኢንጂ": 9296,
      "##ታወቀው": 9297,
      "የባህር": 9298,
      "ሳይቀር": 9299,
      "re": 9300,
      "ሸዋ": 9301,
      "Previous": 9302,
      "1ኛ": 9303,
      "##ኖሪያ": 9304,
      "የኪ": 9305,
      "##ርና": 9306,
      "ጸሎት": 9307,
      "ካላ": 9308,
      "ድንጋይ": 9309,
      "ቶሎ": 9310,
      "የሩ": 9311,
      "##ዞች": 9312,
      "ለእኛ": 9313,
      "የኢሕአዴግ": 9314,
      "ምስኪ": 9315,
      "ከቤተ": 9316,
      "ጀርባ": 9317,
      "መሐመድ": 9318,
      "ይው": 9319,
      "##ዘዝ": 9320,
      "በእኛ": 9321,
      "ኢኮኖሚያዊ": 9322,
      "አይገባም": 9323,
      "ብለህ": 9324,
      "እንደሚሉት": 9325,
      "በጎንደር": 9326,
      "መሄድ": 9327,
      "##ጋው": 9328,
      "ተገለጸ": 9329,
      "ብርቱ": 9330,
      "ተቆ": 9331,
      "##ወድ": 9332,
      "##ገኙበት": 9333,
      "ጴጥሮስ": 9334,
      "ይረዳ": 9335,
      "ጌታችን": 9336,
      "የሰጡት": 9337,
      "##ያዝያ": 9338,
      "ካም": 9339,
      "##ጃቸው": 9340,
      "እስቲ": 9341,
      "የቻይና": 9342,
      "##ክሩ": 9343,
      "500": 9344,
      "Post": 9345,
      "##ዋሪ": 9346,
      "ባለበት": 9347,
      "ኤጀንሲ": 9348,
      "አፍሮ": 9349,
      "ሰፈር": 9350,
      "##ገቡት": 9351,
      "ክለብ": 9352,
      "##ለሽ": 9353,
      "##ቀረበ": 9354,
      "ብረት": 9355,
      "ጊዜያት": 9356,
      "ብሎም": 9357,
      "በአብዛኛው": 9358,
      "በሊ": 9359,
      "ወጥቶ": 9360,
      "የፀጥታ": 9361,
      "በፀ": 9362,
      "ዲግሪ": 9363,
      "##ማችን": 9364,
      "አስቸኳይ": 9365,
      "ለመመለስ": 9366,
      "ሀገረ": 9367,
      "##ሊቲ": 9368,
      "ለል": 9369,
      "የስፖርት": 9370,
      "ትንታ": 9371,
      "አረቢያ": 9372,
      "ንጹ": 9373,
      "የአፍሪቃ": 9374,
      "ባለስልጣን": 9375,
      "##ዛሪ": 9376,
      "የተቃዋሚ": 9377,
      "##በዛ": 9378,
      "በኋላም": 9379,
      "በ199": 9380,
      "##ለወጥ": 9381,
      "##ተረ": 9382,
      "እየሰራ": 9383,
      "##ርን": 9384,
      "##ሆና": 9385,
      "##ርጎ": 9386,
      "ብቅ": 9387,
      "ኤስ": 9388,
      "##ወሰድ": 9389,
      "##ዘጋጀው": 9390,
      "ሆን": 9391,
      "ቁል": 9392,
      "ፈጽሞ": 9393,
      "##ያሉ": 9394,
      "##ፋው": 9395,
      "##ጣኝ": 9396,
      ")፡፡": 9397,
      "በእነዚህ": 9398,
      "የሚያደር": 9399,
      "##ናቱ": 9400,
      "##ኮል": 9401,
      "አርሶ": 9402,
      "##ራቱ": 9403,
      "##ap": 9404,
      "##ንቀሳቀስ": 9405,
      "##ቋረጥ": 9406,
      "አመልክ": 9407,
      "ቀጣይ": 9408,
      "##ሜሽን": 9409,
      "##ከታተል": 9410,
      "##ማመን": 9411,
      "##ሔድ": 9412,
      "##ቶም": 9413,
      "የጭ": 9414,
      "##ብሩ": 9415,
      "የድሮ": 9416,
      "ቅሬታ": 9417,
      "##ድሎ": 9418,
      "##ገሉ": 9419,
      "ደህና": 9420,
      "##በያ": 9421,
      "ክፍት": 9422,
      "ፈንታ": 9423,
      "##ሰሙ": 9424,
      "##ናትን": 9425,
      "የአንድነት": 9426,
      "ለዚሁ": 9427,
      "በእኔ": 9428,
      "ከመስ": 9429,
      "የህወሃት": 9430,
      "በየጊዜው": 9431,
      "በሉ": 9432,
      "##ዎችም": 9433,
      "ሳል": 9434,
      "እያደረገ": 9435,
      "##ዲራ": 9436,
      "ላይም": 9437,
      "በመላው": 9438,
      "በዛ": 9439,
      "ለሁለት": 9440,
      "የተወሰነ": 9441,
      "ለቅ": 9442,
      "ከእኛ": 9443,
      "##ደዱ": 9444,
      "አስራ": 9445,
      "ለበ": 9446,
      "##ደደ": 9447,
      "የላ": 9448,
      "ዘል": 9449,
      "##ራምፕ": 9450,
      "##ስተካከል": 9451,
      "በወያኔ": 9452,
      "##ጠናቀቅ": 9453,
      "##se": 9454,
      "ከእስር": 9455,
      "ያቀ": 9456,
      "##ሲያ": 9457,
      "ለመከላከል": 9458,
      "ሰብአዊ": 9459,
      "የደህንነት": 9460,
      "##ሬዳ": 9461,
      "ሰጪ": 9462,
      "ግዙፍ": 9463,
      "በቀጣይ": 9464,
      "ማስታወሻ": 9465,
      "ዘይት": 9466,
      "##ወግ": 9467,
      "የሕይወት": 9468,
      "በሕገ": 9469,
      "በየአ": 9470,
      "ተሟጋ": 9471,
      "ኮሌጅ": 9472,
      "##ጣጠ": 9473,
      "ተራራ": 9474,
      "##ዝን": 9475,
      "##ሚየር": 9476,
      "##ጣሪዎች": 9477,
      "##ዘም": 9478,
      "የአካባቢ": 9479,
      "##ወያ": 9480,
      "##ያቸውን": 9481,
      "የተዋ": 9482,
      "የፈጠ": 9483,
      "በህዝብ": 9484,
      "##ከባበር": 9485,
      "##ዕቆብ": 9486,
      "##ገባቸው": 9487,
      "##ጨረታ": 9488,
      "መተግበ": 9489,
      "ተዘጋጅ": 9490,
      "##ረናል": 9491,
      "መቀበል": 9492,
      "##ቨስትመንት": 9493,
      "##ፃፀ": 9494,
      "የኃይል": 9495,
      "Addis": 9496,
      "##ዮስ": 9497,
      "2004": 9498,
      "ዝቅተኛ": 9499,
      "##ኒስት": 9500,
      "ተሞክ": 9501,
      "አስተዋጽኦ": 9502,
      "##ብሔር": 9503,
      "ይናገ": 9504,
      "##ረሰ": 9505,
      "እየሰሩ": 9506,
      "##በን": 9507,
      "ተጫዋቾች": 9508,
      "##ስተዋል": 9509,
      "##ሞክራ": 9510,
      "##ቆጣጠ": 9511,
      "##ጋዮች": 9512,
      "ሰን": 9513,
      "ባሉት": 9514,
      "መሥራት": 9515,
      "##ቤታችን": 9516,
      "##ቡና": 9517,
      "##ነገሩ": 9518,
      "ወዲያው": 9519,
      "##ዕራብ": 9520,
      "ታደሰ": 9521,
      "መግቢያ": 9522,
      "ዳግ": 9523,
      "##…]": 9524,
      "ጊዜው": 9525,
      "የተደረገው": 9526,
      "ተናገሩ": 9527,
      "ሙስሊሞች": 9528,
      "ከሶ": 9529,
      "##ዕኮ": 9530,
      "ኤርትራውያን": 9531,
      "ማረጋገጫ": 9532,
      "አንዷ": 9533,
      "አስር": 9534,
      "ተገን": 9535,
      "##ብሊክ": 9536,
      "ይናገራል": 9537,
      "ሚስት": 9538,
      "##ድዋ": 9539,
      "በበኩላቸው": 9540,
      "##ord": 9541,
      "##ደቅ": 9542,
      "ማረፊያ": 9543,
      "st": 9544,
      "አቅርቦት": 9545,
      "[…]": 9546,
      "##ዛቸው": 9547,
      "ቆይቷል": 9548,
      "ማስጠንቀ": 9549,
      "Mus": 9550,
      "##ንጮ": 9551,
      "##ላቻ": 9552,
      "እንዲሆኑ": 9553,
      "ይል": 9554,
      "##ምብ": 9555,
      "ፖለቲከኞች": 9556,
      "ስልት": 9557,
      "የቴሌ": 9558,
      "ደካ": 9559,
      "##ኬንያ": 9560,
      "##ቤል": 9561,
      "እኛን": 9562,
      "አይደል": 9563,
      "ያመለክ": 9564,
      "##ሳችንን": 9565,
      "በኤርትራ": 9566,
      "እውቅና": 9567,
      "##መልስ": 9568,
      "##iew": 9569,
      "ኦሮሚያ": 9570,
      "##ማች": 9571,
      "እንግዳ": 9572,
      "##ተኞችን": 9573,
      "##ገዙ": 9574,
      "ስርአት": 9575,
      "አንብ": 9576,
      "የመጡ": 9577,
      "ሺሕ": 9578,
      "እንዳሉት": 9579,
      "መስክ": 9580,
      "##ስራቅ": 9581,
      "ተወስ": 9582,
      "32": 9583,
      "፡—": 9584,
      "##በዝ": 9585,
      "የድን": 9586,
      "##ፍር": 9587,
      "##art": 9588,
      "##ፈለገው": 9589,
      "አምና": 9590,
      "##ፋሪ": 9591,
      "ሀይል": 9592,
      "##ዟል": 9593,
      "35": 9594,
      "የባህል": 9595,
      "##ገዱ": 9596,
      "ካርድ": 9597,
      "ጆሮ": 9598,
      "የፍትህ": 9599,
      "##ብህ": 9600,
      "##ግነት": 9601,
      "የድም": 9602,
      "##ሪስ": 9603,
      "##ዕለ": 9604,
      "##ents": 9605,
      "ኮሎ": 9606,
      "##ሪዝም": 9607,
      "##ኖቹ": 9608,
      "ይሻ": 9609,
      "##ታደር": 9610,
      "ገልጿል": 9611,
      "አለች": 9612,
      "የዴሞክራሲ": 9613,
      "የተባሉ": 9614,
      "##ሕር": 9615,
      "ስለነበር": 9616,
      "##ጻሜ": 9617,
      "##ቃቂ": 9618,
      "መግባት": 9619,
      "##ፈጽ": 9620,
      "ለመጨረሻ": 9621,
      "ወቅዱስ": 9622,
      "Drama": 9623,
      "ቡድኑ": 9624,
      "መንስ": 9625,
      "##ገዳ": 9626,
      "##ፋስ": 9627,
      "ይኖርበታል": 9628,
      "ረቡዕ": 9629,
      "ውይይ": 9630,
      "የትግል": 9631,
      "ለሕዝብ": 9632,
      "ምሕረት": 9633,
      "የእር": 9634,
      "የሚገር": 9635,
      "የተጠበቀ": 9636,
      "የተጋ": 9637,
      "ረጅም": 9638,
      "##ዌይ": 9639,
      "ቴዲ": 9640,
      "##ሕፈት": 9641,
      "የውስጥ": 9642,
      "በሆኑ": 9643,
      "አርባ": 9644,
      "##ትነት": 9645,
      "##ሪያው": 9646,
      "በአንድነት": 9647,
      "አመሰ": 9648,
      "ዲያ": 9649,
      "መቁ": 9650,
      "##ሙና": 9651,
      "የመጨረሻው": 9652,
      "##ናስ": 9653,
      "##ity": 9654,
      "##ከፋፈል": 9655,
      "ነግ": 9656,
      "የተጣ": 9657,
      "የሚኖር": 9658,
      "በተሰ": 9659,
      "##ህሳስ": 9660,
      "##ማም": 9661,
      "##ፎርሜሽን": 9662,
      "ከተለያዩ": 9663,
      "ይጠበቅ": 9664,
      "ፍቅ": 9665,
      "ለመስራት": 9666,
      "መንግሥታዊ": 9667,
      "ደጋግ": 9668,
      "##ክርስትና": 9669,
      "ትንታኔ": 9670,
      "ያቀር": 9671,
      "ኢትዮጵያዊነት": 9672,
      "##ንቲባ": 9673,
      "ያስረዳ": 9674,
      "##ረጋጋ": 9675,
      "##ቪል": 9676,
      "##ወልድ": 9677,
      "የተፈጠረ": 9678,
      "ሀገሮች": 9679,
      "##ላለፈ": 9680,
      "በህግ": 9681,
      "ለዓለም": 9682,
      "ይጨ": 9683,
      "ለምንድን": 9684,
      "አንዱን": 9685,
      "የአምላክ": 9686,
      "##ሊዝም": 9687,
      "##አን": 9688,
      "##lick": 9689,
      "በክልሉ": 9690,
      "ለፊት": 9691,
      "ደጋፊዎች": 9692,
      "የሚሰጠው": 9693,
      "##ውልድ": 9694,
      "##ላለህ": 9695,
      "የተጀመረው": 9696,
      "##ha": 9697,
      "DW": 9698,
      "##ንሰር": 9699,
      "ይህንኑ": 9700,
      "ሶማሌ": 9701,
      "ጾም": 9702,
      "አገራዊ": 9703,
      "##ናኛ": 9704,
      "##ለታ": 9705,
      "የች": 9706,
      "ቀል": 9707,
      "ቢል": 9708,
      "ድብ": 9709,
      "ሴራ": 9710,
      "በሞት": 9711,
      "በድጋሚ": 9712,
      "##ኝታ": 9713,
      "ደመቀ": 9714,
      "ጀግ": 9715,
      "መንደር": 9716,
      "##ፈና": 9717,
      "የተሰራ": 9718,
      "ከፊ": 9719,
      "ደጀ": 9720,
      "በመሆናቸው": 9721,
      "ሚያዝያ": 9722,
      "ከእግዚአብሔር": 9723,
      "ይጠቀ": 9724,
      "##est": 9725,
      "ለማረጋገጥ": 9726,
      "ያልሆኑ": 9727,
      "ፌዴሬሽን": 9728,
      "##ጎብ": 9729,
      "##ጨበ": 9730,
      "ተገልጿል": 9731,
      "ማንበብ": 9732,
      "##ሁዳ": 9733,
      "ባልተ": 9734,
      "ጀግና": 9735,
      "##ዋላ": 9736,
      "ስምም": 9737,
      "ኪዳ": 9738,
      "ጸሐፊ": 9739,
      "##ራቾች": 9740,
      "በእን": 9741,
      "##ራረብ": 9742,
      "##ከሰት": 9743,
      "…”": 9744,
      "ውር": 9745,
      "##ሃዊ": 9746,
      "መሣሪያዎች": 9747,
      "04": 9748,
      "!)": 9749,
      "ጀመር": 9750,
      "ተሾመ": 9751,
      "##ቦር": 9752,
      "ከዋ": 9753,
      "ፅሁፍ": 9754,
      "##ቨር": 9755,
      "የወልቃይት": 9756,
      "##ook": 9757,
      "Ap": 9758,
      "ችግሩን": 9759,
      "ይጀም": 9760,
      "##ረሻ": 9761,
      "ታጣ": 9762,
      "ይልቁ": 9763,
      "የከ": 9764,
      "ተልዕኮ": 9765,
      "##ራጭ": 9766,
      "##ዮቹ": 9767,
      "አገሪቱ": 9768,
      "ውብ": 9769,
      "##መናት": 9770,
      "ማነው": 9771,
      "ተጽዕኖ": 9772,
      "Al": 9773,
      "##ካይ": 9774,
      "##ሄራዊ": 9775,
      "ጠዋት": 9776,
      "##ምስ": 9777,
      "ተከሳ": 9778,
      "ሰዉ": 9779,
      "ተበ": 9780,
      "##ማቅ": 9781,
      "ብራ": 9782,
      "ምልልስ": 9783,
      "##ወሩ": 9784,
      "ተነሳ": 9785,
      "በዋናነት": 9786,
      "ለማቅረብ": 9787,
      "በትምህርት": 9788,
      "##ባቸውም": 9789,
      "የፕሬ": 9790,
      "በሰጡት": 9791,
      "##ric": 9792,
      "ሰጥተዋል": 9793,
      "##ዓመቱ": 9794,
      "##ሃፍ": 9795,
      "ጎዳና": 9796,
      "ሰውን": 9797,
      "መልእክ": 9798,
      "##ሎን": 9799,
      "የሚታይ": 9800,
      "በመንግሥት": 9801,
      "የተለመደ": 9802,
      "ተንቀሳቃሽ": 9803,
      "ቆር": 9804,
      "##ሙም": 9805,
      "##ጠየቁ": 9806,
      "##ዋቱ": 9807,
      "ባህላዊ": 9808,
      "##ራቴጂ": 9809,
      "ቴሌቪዥን": 9810,
      "ተመልክ": 9811,
      "የተወሰኑ": 9812,
      "ንድፍ": 9813,
      "የሚገኙት": 9814,
      "ገብርኤል": 9815,
      "##ዝገባ": 9816,
      "ago": 9817,
      "የገቢ": 9818,
      "አልቻለም": 9819,
      "አደረ": 9820,
      "33": 9821,
      "አቆጣጠር": 9822,
      "##ኝት": 9823,
      "ለካ": 9824,
      "##und": 9825,
      "በሀገራችን": 9826,
      "##ኝን": 9827,
      "እሳ": 9828,
      "ወደሚ": 9829,
      "##ወት": 9830,
      "##ጎት": 9831,
      "ባስ": 9832,
      "##ሴፍ": 9833,
      "ወገኖቻችን": 9834,
      "ጨረታ": 9835,
      "እንደሚሆን": 9836,
      "##ድድር": 9837,
      "አስቀም": 9838,
      "ሁሌም": 9839,
      "2013": 9840,
      "መውጣት": 9841,
      "አብዮት": 9842,
      "ኦባማ": 9843,
      "በአገራችን": 9844,
      "##ht": 9845,
      "##ልካ": 9846,
      "ባዶ": 9847,
      "##rt": 9848,
      "ለማስተ": 9849,
      "##ቴክ": 9850,
      "ዲሞክራሲያዊ": 9851,
      "ባለሥልጣናት": 9852,
      "##ውቁ": 9853,
      "##ሂብ": 9854,
      "ማዳ": 9855,
      "ካድ": 9856,
      "ለፍርድ": 9857,
      "more": 9858,
      "የከፋ": 9859,
      "የመነ": 9860,
      "የተወለ": 9861,
      "##ሰማው": 9862,
      "##ገበያ": 9863,
      "ስለማይ": 9864,
      "ነጭ": 9865,
      "##rib": 9866,
      "ባለሥልጣን": 9867,
      "መብቱ": 9868,
      "##ቆይ": 9869,
      "##ለትን": 9870,
      "ጽጌ": 9871,
      "አብዛኞቹ": 9872,
      "ተካ": 9873,
      "ዓለማ": 9874,
      "መቀመ": 9875,
      "ዝግጅቶች": 9876,
      "##ገራችንን": 9877,
      "ትእዛዝ": 9878,
      "##ጠፉ": 9879,
      "##ቀኑ": 9880,
      "እየተካሄደ": 9881,
      "የተሰኘ": 9882,
      ".)": 9883,
      "##ww": 9884,
      "በማንኛውም": 9885,
      "እንግሊዝኛ": 9886,
      "የላቸውም": 9887,
      "በሰላማዊ": 9888,
      "##ደገፍ": 9889,
      "09": 9890,
      "##ባን": 9891,
      "##ዋቸውን": 9892,
      "##ጎዳ": 9893,
      "እንደነበረ": 9894,
      "##ust": 9895,
      "ሳሙኤል": 9896,
      "መመለስ": 9897,
      "##ቻይና": 9898,
      "በቀን": 9899,
      "ተመስገን": 9900,
      "ማቆም": 9901,
      "##መኛ": 9902,
      "በአስቸኳይ": 9903,
      "##ith": 9904,
      "ቀርቦ": 9905,
      "##ez": 9906,
      "የሚች": 9907,
      "አለመሆኑ": 9908,
      "##ዉም": 9909,
      "##ory": 9910,
      "##ሬዳዋ": 9911,
      "##ሰለ": 9912,
      "አብርሃም": 9913,
      "እሷ": 9914,
      "ስያሜ": 9915,
      "የመጣው": 9916,
      "ተሳታፊ": 9917,
      "##ኑኤል": 9918,
      "የስልጣን": 9919,
      "በታሪክ": 9920,
      "ከየ": 9921,
      "ራስን": 9922,
      "##ፃፍ": 9923,
      "##ዛኝ": 9924,
      "##ሬሽኑ": 9925,
      "ሠር": 9926,
      "##ካሄዱ": 9927,
      "##ሟላ": 9928,
      "በሲ": 9929,
      "ማሽን": 9930,
      "##ሣኤ": 9931,
      "##ልኮ": 9932,
      "ገደብ": 9933,
      "ወጣቱ": 9934,
      "ያነ": 9935,
      "የኤሌክትሪክ": 9936,
      "ጊዜም": 9937,
      "ባንዲራ": 9938,
      "ይመጣል": 9939,
      "##ንካሬ": 9940,
      "##ሸጋ": 9941,
      "ተረ": 9942,
      "##ጉል": 9943,
      "እርግጠኛ": 9944,
      "ይቀጥላል": 9945,
      "ወኪ": 9946,
      "የጌ": 9947,
      "መገር": 9948,
      "ሞተ": 9949,
      "##ሻንጉ": 9950,
      "ተወል": 9951,
      "አሸባሪ": 9952,
      "እሰ": 9953,
      "##ክታር": 9954,
      "##ምንቱ": 9955,
      "በብዛት": 9956,
      "##gle": 9957,
      "ትርጉ": 9958,
      "በሙስና": 9959,
      "ወግ": 9960,
      "lol": 9961,
      "ገደማ": 9962,
      "##ጭሩ": 9963,
      "##ጨው": 9964,
      "ሃብ": 9965,
      "የ201": 9966,
      "##በሉ": 9967,
      "##ዳድር": 9968,
      "ያግኙ": 9969,
      "ለግ": 9970,
      "አረጋግ": 9971,
      "ያለምንም": 9972,
      "የተለያየ": 9973,
      "በግልፅ": 9974,
      "የሚያደርገው": 9975,
      "አርቲስት": 9976,
      "##ሮድ": 9977,
      "በራሳቸው": 9978,
      "##ቀጥለው": 9979,
      "ብቸኛ": 9980,
      "ሽፋን": 9981,
      "##ዝግብ": 9982,
      "##ቸት": 9983,
      "##ዕምሮ": 9984,
      "ነሐሴ": 9985,
      "##por": 9986,
      "01": 9987,
      "##ረቃ": 9988,
      "here": 9989,
      "ክስተት": 9990,
      "የሌላቸው": 9991,
      "##ብስ": 9992,
      "##ናቀሉ": 9993,
      "##ድስት": 9994,
      "አላውቅም": 9995,
      "ክፋል": 9996,
      "##ኩኝ": 9997,
      "የወንጀል": 9998,
      "ህዝብን": 9999,
      "ከምን": 10000,
      "በተፈ": 10001,
      "Music": 10002,
      "በግብ": 10003,
      "በየዓመቱ": 10004,
      "ሰለሞን": 10005,
      "አለማየሁ": 10006,
      "##ናዳ": 10007,
      "አማካይነት": 10008,
      "ትስ": 10009,
      "የአን": 10010,
      "ማብ": 10011,
      "ፓትርያርኩ": 10012,
      "ቁጭ": 10013,
      "ያሬድ": 10014,
      "ፍጥነት": 10015,
      "ምንዛሪ": 10016,
      "አስረድተዋል": 10017,
      "##ወል": 10018,
      "እዚ": 10019,
      "##ጠቀስ": 10020,
      "ብሄረ": 10021,
      "##ቀና": 10022,
      "##ባኤ": 10023,
      "##ሺህ": 10024,
      "##ሪንግ": 10025,
      "##ግራቸው": 10026,
      "ይሆናሉ": 10027,
      "ራዕይ": 10028,
      "የተናገሩት": 10029,
      "ይደረጋል": 10030,
      "በእጅጉ": 10031,
      "##80": 10032,
      "ገርባ": 10033,
      "አኳያ": 10034,
      "##ኾኑ": 10035,
      "##ሽከርካሪ": 10036,
      "ልጄ": 10037,
      "ከሰው": 10038,
      "ፋሲ": 10039,
      "ተፈጥ": 10040,
      "ህልውና": 10041,
      "##ረና": 10042,
      "አስተዳዳሪ": 10043,
      "በመጥ": 10044,
      "ህዳር": 10045,
      "##ዊው": 10046,
      "##ጅነት": 10047,
      "##ገነዘ": 10048,
      "ናብ": 10049,
      "##ቲክስ": 10050,
      "##ማማኝ": 10051,
      "መግባባት": 10052,
      "እንዳት": 10053,
      "ክብረ": 10054,
      "ጥሰት": 10055,
      "##edy": 10056,
      "የቅጂ": 10057,
      "##ence": 10058,
      "የፀረ": 10059,
      "ከሰማ": 10060,
      "##ፈጸመው": 10061,
      "ጥቂ": 10062,
      "አይችሉም": 10063,
      "ሙሴ": 10064,
      "ቆን": 10065,
      "ምቹ": 10066,
      "##ደለ": 10067,
      "##ዘሮ": 10068,
      "ቅዱስን": 10069,
      "አሳሳቢ": 10070,
      "ኢንተርኔት": 10071,
      "መምህራን": 10072,
      "ከንቲባ": 10073,
      "ጥንቃቄ": 10074,
      "ሳቢያ": 10075,
      "በአማርኛ": 10076,
      "አብዛኛው": 10077,
      "##ቶቻቸው": 10078,
      "ተሞክሮ": 10079,
      "ችግሮችን": 10080,
      "##ak": 10081,
      "ካህናት": 10082,
      "የሰጠው": 10083,
      "የህዳሴ": 10084,
      "፡፡››": 10085,
      "አንበሳ": 10086,
      "ውጤቶች": 10087,
      "ሲታ": 10088,
      "አገራችን": 10089,
      "##ገናል": 10090,
      ".....": 10091,
      "ብአዴን": 10092,
      "##ሬም": 10093,
      "የሚደረገው": 10094,
      "የበረ": 10095,
      "##ሪን": 10096,
      "የራስ": 10097,
      "##ቶቹን": 10098,
      "##ሶችን": 10099,
      "እንተ": 10100,
      "የነፃነት": 10101,
      "ያላት": 10102,
      "##ተህ": 10103,
      "የኢየሱስ": 10104,
      "ተቀማጭ": 10105,
      "እየጨመረ": 10106,
      "አደረጃ": 10107,
      "የሊ": 10108,
      "መስጠ": 10109,
      "ይጠብ": 10110,
      "ከፈ": 10111,
      "መርህ": 10112,
      "እየተሰራ": 10113,
      "በኃላ": 10114,
      "34": 10115,
      "ከመን": 10116,
      "በፍርድ": 10117,
      "ጄኔራል": 10118,
      "የሴቶች": 10119,
      "ጠቀ": 10120,
      "የተሰጠው": 10121,
      "##ዘኛ": 10122,
      "ህመም": 10123,
      "መጡ": 10124,
      "is": 10125,
      "ርእሰ": 10126,
      "##ሎም": 10127,
      "##ያስፖራ": 10128,
      "ሆነዋል": 10129,
      "ብዙሃን": 10130,
      "ወንድም": 10131,
      "##ጣጣ": 10132,
      "##ሞኑ": 10133,
      "የመብት": 10134,
      "ይጠ": 10135,
      "##ላጭ": 10136,
      "ተጨባጭ": 10137,
      "ድንጋጌ": 10138,
      "የሚዘ": 10139,
      "##oogle": 10140,
      "እንድታ": 10141,
      "##ፍረስ": 10142,
      "መረብ": 10143,
      "ዲፕሎማ": 10144,
      "##ናቸውም": 10145,
      "የሚመስ": 10146,
      "የእን": 10147,
      "ከእርሱ": 10148,
      "St": 10149,
      "ወንጌ": 10150,
      "ማስተካ": 10151,
      "www": 10152,
      "መያዝ": 10153,
      "ጠባቂ": 10154,
      "መስዋዕት": 10155,
      "መድሃ": 10156,
      "ይም": 10157,
      "አንዴ": 10158,
      "ውስጥም": 10159,
      "ኃይሌ": 10160,
      "##ምፒው": 10161,
      "መሃ": 10162,
      "ያደ": 10163,
      "ዜጎችን": 10164,
      "ሃይሎች": 10165,
      "##ack": 10166,
      "ትራምፕ": 10167,
      "##ታለች": 10168,
      "በአው": 10169,
      "ይደ": 10170,
      "ያዘ": 10171,
      "ወዴት": 10172,
      "አገና": 10173,
      "ከነዚህ": 10174,
      "##ማርያም": 10175,
      "መሥሪያ": 10176,
      "የሽብር": 10177,
      "ኃይሉ": 10178,
      "ሊኖር": 10179,
      "በአለም": 10180,
      "##ጓዙ": 10181,
      "በአል": 10182,
      "##ዊያን": 10183,
      "##ቆት": 10184,
      "##ናትና": 10185,
      "##ደርጉት": 10186,
      "ምዕራብ": 10187,
      "ከሙ": 10188,
      "ዝተ": 10189,
      "##os": 10190,
      "ተሰም": 10191,
      "##ራችሁ": 10192,
      "ንቅ": 10193,
      "##ወረ": 10194,
      "በልዩ": 10195,
      "##ምፒዮ": 10196,
      "መንበር": 10197,
      "ቴክ": 10198,
      "እናው": 10199,
      "መልዕክ": 10200,
      "Th": 10201,
      "##ታና": 10202,
      "##ውንና": 10203,
      "##ነሳው": 10204,
      "ይገልጻ": 10205,
      "መጥቶ": 10206,
      "የአካል": 10207,
      "ተሻ": 10208,
      "ተቋማ": 10209,
      "##ቆማ": 10210,
      "##ገልገል": 10211,
      "አስታውቀዋል": 10212,
      "ደቀ": 10213,
      "##ution": 10214,
      "በእንግሊዝ": 10215,
      "በማቅረብ": 10216,
      "##ለድ": 10217,
      "የበጎ": 10218,
      "ዜማ": 10219,
      "ልታ": 10220,
      "##ምሳ": 10221,
      "ወንድሞ": 10222,
      "የሻ": 10223,
      "##ek": 10224,
      "የተላ": 10225,
      "ሰለባ": 10226,
      "36": 10227,
      "አንድን": 10228,
      "Ch": 10229,
      "ፈጥ": 10230,
      "ሆነን": 10231,
      "##ምላኽ": 10232,
      "ፕሬስ": 10233,
      "##ጣሬ": 10234,
      "አንቺ": 10235,
      "የክርስቶስ": 10236,
      "የትም": 10237,
      "እሱም": 10238,
      "ለጋ": 10239,
      "ገበሬ": 10240,
      "በህገ": 10241,
      "##ቻችሁ": 10242,
      "##ባሉት": 10243,
      "##ቲን": 10244,
      "የማዕ": 10245,
      "አስተያየቶች": 10246,
      "እንዲሰ": 10247,
      "ጠበቃ": 10248,
      "##ኔን": 10249,
      "?››": 10250,
      "ቆሻሻ": 10251,
      "አያሌው": 10252,
      "አጽ": 10253,
      "ሳት": 10254,
      "##and": 10255,
      "እያሳ": 10256,
      "06": 10257,
      "እሱን": 10258,
      "ይህንንም": 10259,
      "አውራ": 10260,
      "በሕይወት": 10261,
      "##ቀበሉ": 10262,
      "ይጠይቃል": 10263,
      "##ቸዋለሁ": 10264,
      "ad": 10265,
      "##ምየር": 10266,
      "አካባቢው": 10267,
      "##ኛውንም": 10268,
      "03": 10269,
      "##ድብ": 10270,
      "ባልደረ": 10271,
      "##ጀራ": 10272,
      "##ፈልገውን": 10273,
      "##if": 10274,
      "የሜ": 10275,
      "የደም": 10276,
      "##ላለች": 10277,
      "የአካባቢው": 10278,
      "Inter": 10279,
      "ልና": 10280,
      "ተደረገ": 10281,
      "##መኝ": 10282,
      "ስለማ": 10283,
      "##ኮር": 10284,
      "ሲነ": 10285,
      "##ውልት": 10286,
      "አቀባበል": 10287,
      "ከገ": 10288,
      "##ቢኔ": 10289,
      "##ሰብሰብ": 10290,
      "##መረጡ": 10291,
      "በተቃራኒ": 10292,
      "አሰልጣኝ": 10293,
      "ለመቀበል": 10294,
      "ትላንት": 10295,
      "ተችሏል": 10296,
      "ችሏል": 10297,
      "ሰበብ": 10298,
      "##ምረው": 10299,
      "##ራፍ": 10300,
      "##ዳይ": 10301,
      "##ነተኛ": 10302,
      "የተጻፈ": 10303,
      "መስማት": 10304,
      "ስዩም": 10305,
      "አያያዝ": 10306,
      "እንደሌለ": 10307,
      "?!": 10308,
      "ግብፅ": 10309,
      "ክርስቲያናት": 10310,
      "##ቆጠ": 10311,
      "##ኩበት": 10312,
      "የሰሜን": 10313,
      "ክርስቲያኖች": 10314,
      "ለጊዜው": 10315,
      "የማህ": 10316,
      "##ለውም": 10317,
      "ባደረጉት": 10318,
      "ለእግዚአብሔር": 10319,
      "፤”": 10320,
      "##ወትር": 10321,
      "በመሰ": 10322,
      "ተዘግ": 10323,
      "የጊዜ": 10324,
      "##ዌር": 10325,
      "በተለየ": 10326,
      "ተነግ": 10327,
      "በሩ": 10328,
      "##ሪታ": 10329,
      "##ዱእ": 10330,
      "የእግዚአብሔርን": 10331,
      "ራእ": 10332,
      "ምስል": 10333,
      "ሉቃ": 10334,
      "አዎን": 10335,
      "##ብሰባ": 10336,
      "ማኅበረሰብ": 10337,
      "ፍትሕ": 10338,
      "##ወደ": 10339,
      "ስላለ": 10340,
      "##ለሙ": 10341,
      "Comedy": 10342,
      "ምእመናን": 10343,
      "##ራፊክ": 10344,
      "##ታለን": 10345,
      "ደካማ": 10346,
      "በጣ": 10347,
      "በመጠ": 10348,
      "##ዓን": 10349,
      "ማረጋገጥ": 10350,
      "ከሞ": 10351,
      "ያመ": 10352,
      "##ኮም": 10353,
      "በሁለቱ": 10354,
      "ቤተሰቦች": 10355,
      "ይጠቅ": 10356,
      "ያለባቸው": 10357,
      "በጀርመን": 10358,
      "ፋይዳ": 10359,
      "አውርድ": 10360,
      "##ገሬ": 10361,
      "##ጦት": 10362,
      "##መልከ": 10363,
      "##ረንጓ": 10364,
      "Dec": 10365,
      "##ational": 10366,
      "ዘመነ": 10367,
      "አያውቅም": 10368,
      "ፀጋ": 10369,
      "##ዎታል": 10370,
      "##ያዎች": 10371,
      "##ጠራው": 10372,
      "##ምት": 10373,
      "##መጣም": 10374,
      "አንዳንዴ": 10375,
      "ረዳ": 10376,
      "ቤቱን": 10377,
      "ዓመታዊ": 10378,
      "መጠይቅ": 10379,
      "##ክብ": 10380,
      "##ጻጸም": 10381,
      "##በቱ": 10382,
      "##ዕና": 10383,
      "##መለሰ": 10384,
      "ተሰብ": 10385,
      "ፈረን": 10386,
      "እንደሚችሉ": 10387,
      "በትን": 10388,
      "Off": 10389,
      "ከጥቂት": 10390,
      "ወያኔን": 10391,
      "የብር": 10392,
      "አቤቱታ": 10393,
      "##ገናኘት": 10394,
      "##ወሰኑ": 10395,
      "ሀገራዊ": 10396,
      "ሥፍራ": 10397,
      "መርሐ": 10398,
      "አጠቃቀም": 10399,
      "ከቅ": 10400,
      "##ረሱ": 10401,
      "ሚስጥ": 10402,
      "##ናቃ": 10403,
      "እንደዚሁ": 10404,
      "ቤተሰቦ": 10405,
      "አደረጉ": 10406,
      "የሚገኘ": 10407,
      "ሌላውን": 10408,
      "##መጣው": 10409,
      "##ሜት": 10410,
      "##ስፈ": 10411,
      "##ለላ": 10412,
      "##የቱ": 10413,
      "##ሶን": 10414,
      "ትርፍ": 10415,
      "ለባ": 10416,
      "##ሌን": 10417,
      "##ፋዊ": 10418,
      "የማድረግ": 10419,
      "ኪራይ": 10420,
      "##ቆሙ": 10421,
      "አጠገብ": 10422,
      "በእውነት": 10423,
      "ውሸት": 10424,
      "መዝናኛ": 10425,
      "##ዳችን": 10426,
      "##ገለጸው": 10427,
      "ሕንፃ": 10428,
      "2014": 10429,
      "የጨ": 10430,
      "##ድግ": 10431,
      "የቅድ": 10432,
      "ምናልባትም": 10433,
      "##ታትን": 10434,
      "##ዝነስ": 10435,
      "በኩ": 10436,
      "##ሻንጉል": 10437,
      "ማት": 10438,
      "ወዳድ": 10439,
      "##ቻው": 10440,
      "##መራር": 10441,
      "ኤር": 10442,
      "ጎራ": 10443,
      "ማሰ": 10444,
      "ድህ": 10445,
      "የቤተሰብ": 10446,
      "ጠቀሜ": 10447,
      "የተቋቋ": 10448,
      "ከታች": 10449,
      "ኮከብ": 10450,
      "ጎሳ": 10451,
      "በአውሮፓ": 10452,
      "አንዳንዶቹ": 10453,
      "##ከለኛ": 10454,
      "##ነቴ": 10455,
      "##ክን": 10456,
      "##aw": 10457,
      "የተነሣ": 10458,
      "መመልከት": 10459,
      "##ፈቅ": 10460,
      "አጋር": 10461,
      "ስትራቴጂ": 10462,
      "##ዓቱ": 10463,
      "##ኒቱ": 10464,
      "##ሮት": 10465,
      "ሕዝብን": 10466,
      "መረጃዎችን": 10467,
      "##እኖ": 10468,
      "የጋዜ": 10469,
      "##ላትና": 10470,
      "ቀዳማዊ": 10471,
      "##ትመት": 10472,
      "የቆየ": 10473,
      "እነርሱም": 10474,
      "ቅርንጫ": 10475,
      "ከድ": 10476,
      "መቀመጫ": 10477,
      "##ገመ": 10478,
      "ለጎ": 10479,
      "##ረከ": 10480,
      "ይሄንን": 10481,
      "ካስ": 10482,
      "##ላለፉ": 10483,
      "ብሔረሰቦች": 10484,
      "ሀበሻ": 10485,
      "##ፍታ": 10486,
      "መልአ": 10487,
      "##ጭበር": 10488,
      "የግንባ": 10489,
[...]
